7C7566524B382A10 48B
7C7769524B302A13 696
A7765C554B302A11 A78
7C7869524B302A11 696
8C8C665847302911 8C5
8C786C664C302B15 8CA
9C766C5447302A12 2A9
8C796A5247302B11 8C4
8778695241342A10 2AB
987C69544B302611 26A
7C7769683C302A12 698
967C695547342A11 473
AC7867554B302611 AC4
7C785C5247362B11 479
7C78695143302A15 696
8C7C6A5243302B15 6A9
8C8C555247302816 475
8873695247362A10 467
8C785C5247302A14 2AB
807866553B342A11 2AB
89735C5247362A11 467
8C7658524B302A11 8C4
8C78696745302A13 8C6
8C756B6632302A11 2A8
88765C5245342A10 2A9
84786C694C452A12 2AB
8A7869543C302B13 696
847B6C6945302A13 457
8A75695247342B10 696
7C7869663C302A14 2AB
7C7B665447302812 28B
7C7569633C302A12 2A8
8C73675B3C302A11 2A6
A2736C694B362710 46B
8573665847302A11 835
797866523C342A15 2AB
9B8C635547302A11 2A9
8B7769553C302813 28A
8C7C69524B342710 27A
AC7866554B302A11 AC4
817369524B382615 4B7
87785C5549362A11 2AB
8C73525049362711 278
7C7769553C302B11 2BA
8177695543342B12 2BA
82715C5547302B16 479
A18C695547302618 47B
AC7769523C302B14 2BA
857B6C6947302A14 6C9
8C746A513C302612 267
8B74695538302A11 8B8
8675695247302A14 856
8C78695541302A12 8C4
8C7569683C302612 69B
82745C574B302611 267
AC735C5247362A11 467
AC8B5C5247342911 AC5
8C7567513C302A13 2A8
8C765C5241342A10 2A9
8C7A69643C302618 8C5
847769613C302A15 612
7C77665533302911 29A
867869514B302A14 4B7
8C7655524B342711 279
AC7763524B302A11 AC4
8C746A5547302612 263
7C7769523A302B15 2BA
8C776C6945302A12 2A6
9C78696647322A14 2AB
8678695C3C302A12 2AB
867469533C302811 287
8A7C69554B382711 276
857469524C4B2810 287
7675695247302B14 69A
AC8B535247302911 AC8
837766544B302A12 A30
8471665547302918 47B
8C8866544B302711 27A
7C7369544B302812 28A
8C73665547302914 8C2
7C77695543302B12 2BA
8C776B6945342812 28A
958C6A523C302611 267
8C75695143302A12 2A8
9880665247342911 29A
8177665843302A15 669
7C7766553C322A11 669
8C7B6A5147302816 285
8B7655533C302A11 2A9
86776C6945302A12 2AB
8B7766523C302911 29A
8C7863523C342A11 636
8273695534302711 27A
8B76545243302A15 2A9
83756C6647302811 A30
857766523C302811 28B
83786A5247342B11 6A9
8C7659524B342711 279
857766524C4B2A10 669
7B73695247362A11 467
9C7669524C472A10 4CB
967C69524C4B2811 28A
8078695C45342A12 2AB
967C69514B302813 28A
9C716A524B302918 6A7
867C695145342A10 863
8C78665143342B15 8CA
8C7867523C342A11 676
8C79635447302A11 8C5
8C7C695241342A10 8C3
82785C5147302B16 479
A273696547362A10 467
8978665531302A14 2AB
AC756C6947302811 AC4
877569524B302A11 696
837466554B322A11 2A7
8173695447302A12 2A6
7C725C5147302B16 479
8C786A5143342B15 8C9
857C665347302A11 669
8C785C524C472A11 2AB
8C76695543302A14 2AB
A8756A524B342611 A84
8C766A5547342912 8C3
7C786C663C302A12 2AB
877866523C302A15 2AB
857869513C302A13 A52
8C74665549302A12 8CB
8C7567524B302A13 2A8
8C745C5145302B16 8CA
7876696245302A13 621
877369524B362A11 696
837869523C302A14 696
96855A5247302B11 2BA
8C735C5249362810 287
8C776C663C342915 29A
8A7869553C302B11 696
81726C6945302A13 6CB
8C77665249302A11 663
897766553C302B14 2BA
7C7469514B302A15 696
7B78665449302A11 2AB
98736B6947342A12 696
8B765C583C302A11 2A9
8C7369553C302A12 8C4
7974665247302B11 2B8
8678695245342A10 863
82735C5547362911 467
82786A5147342B10 475
7C786C663C342A15 2AB
8C75665247342910 8C3
8C8C69523C302A11 8C7
9473696847322A11 69B
7872665543302A14 2AB
9C7769554B302813 28A
85785C5247362A11 2AB
827869533C302B11 69A
827369553C382611 69A
7C765C5243302A15 2A9
A273696847362A10 467
8C735A5249362711 469
807369553C342A11 696
8578665349302A11 2AB
8C7552504B362711 279
7C7769553C302612 26A
9C965C524C4B2810 28A
7C746C693C302612 267
8C786A5249302B14 8C5
8C756A524B362810 287
757369524B382711 276
AC7554524B302911 29A
8375695247302A14 853
8C726A554B302618 6A9
8C745C52493A2B11 2B7
8C7569524C4B2A11 2A8
8C74635238302A11 2A7
8C7769523C302611 8C8
8375695247342A11 853
A87369524B342A11 A84
997C6A524B302811 6A9
8C786A693C302B11 8C7
7B735C5247362911 467
8C766C673C302911 8C4
A37769524B342615 26A
A378695547302A12 A36
8C7869554B342A12 2A7
7C7866543C302A15 2AB
A87459554B302A11 2A7
8C7863553B342A11 2AB
9B8C695243302615 8C8
8C7766524C4B2A11 8C9
A9756A524B302711 278
A0736A524C4B2816 6A9
887369523C342A11 2AB
8C7C665447302912 29A
8C74695C3C302812 28B
8C7266554B342A11 8C3
AC85585247302911 AC6
AC76555247302A11 2A9
8C7369524B362710 46B
8C8A535247302B16 479
8C8769513C302A15 8C7
8C82695447302611 8C5
8C736C673C302A12 6C7
8C7369553C342B11 2BA
827C695547302A14 696
8C776C633B302A15 6C6
8177695443302B12 2B8
8A7469513C302612 267
8C7C696745342A13 8C6
8C776A524B302615 6A7
9C7566544B302A11 2A8
867469554B302811 287
9C8C6A524B302816 6A9
76715C5245302A14 2A9
8C74696245302A13 8CB
8B756A5447302611 6A9
8A72665547302918 47B
88765C5549302A14 497
AC745C524B362911 297
8C73665147302914 8CB
7C735C5247342B16 479
8C756A6933302B11 2B8
8078665547342A11 669
8C746A524B382711 8C9
87756C6638302A11 2A8
8C7C6A553C342B16 6A9
827369554B342A11 696
8C76695143302A15 8CB
87756C693C302813 874
807866554C3C2A11 4C7
7C7C6C6945302A14 6C9
7C786A5247362B11 6A9
83766C523C302A15 2A9
8B76575245302A14 2A9
827C545147302B16 479
A87766524B302A11 A84
8C736A5247302611 8CB
8C7C6C6945342612 263
887469554B302A12 885
8B77695541342A12 8B8
9C7C69554B342A11 696
8C78695243342615 26A
897466554B322A11 2A7
987566524B342A11 669
8C7C5C524C452B16 8C9
8174695233302A15 2AB
84776C6945302A12 874
94786C6947322611 6C9
8C7C545247362911 8C3
997C6A554B302711 279
8C776B553A302611 26A
857769524B3A2811 4AB
8C75686633302A11 68B
8C74695231302B13 8C5
82766C5C45302A14 2A9
9C765C524B302A13 2A9
867C695247342A10 863
8C7B665247302A14 669
837766523A302915 29A
8475695136302B13 2B8
77746A514B302915 296
967C5C5245302B14 2BA
7978635547342A11 2AB
7C7B695547302A12 2AB
86786A5347302B11 863
AC855B5247302911 296
8C7C6A5149342618 263
83765C524B342A15 2A9
8879555247302B16 898
867B695247342A11 863
8C756C6647302811 8C3
8C7769553C302B12 8C3
8C776A5245302816 28B
8378665547302B11 669
88776A5539302611 6A9
81766A554B342712 279
7C75665243382A10 483
8577665849342A11 A52
8278696145302A13 2AB
75736A5447302B11 2B8
8A7C695547302618 263
9C7369554B302612 267
9C7466554B302A12 2A7
8C745C5549362B11 2B7
8C7B6A553C302618 6AB
A07869554C332A12 2AB
8C7C665B3C302A11 6B6
7C785C5347302A11 2AB
8C735C524C472A11 2A6
7C765C5247342A11 2A9
76755C5243302A14 2A9
8C7866523C302B15 8CA
AC7C66554B342A11 AC3
7B78665543302A14 2AB
8C706C6941342712 273
8C7664554C472A10 2A9
8C73695245302A14 8C7
8C775C5143302A15 8CB
9C7669524B342A11 696
8377665532302B11 669
8578695241362A10 2AB
877B6C6945302A12 6C9
7C78665143302A15 2AB
8C785C5245362B10 8CA
8C7569624B302813 8CA
8C746A5238302B16 6A9
8C73695247382610 8CB
7C7869543C302A13 2AB
81756A5247362B10 2B8
8374665239302A11 669
8C7C695445302612 8C8
A37869544C472A12 2AB
8378665547302A12 2AB
8C786C6941302B12 8C7
7C71665247342A10 479
7A7766553C302911 29A
887369554A472611 659
8C75665143302A14 8C7
817A5C5247342B16 479
9C786C694C452A10 2AB
8C8A695233302618 8CB
8873695147302A12 475
AC7C6A524B342315 AC8
8C75635247362A11 2A8
867769524B342A10 863
8C7C665147302B12 8C5
8C7069523C342B13 8C6
84766A554B302712 6A9
8C7566584B302A11 686
80785C5243362A15 2AB
887657523C302A11 2A9
8C7A595247302816 479
8876555249302A11 497
8978665147302A14 2AB
8C85695243342A10 8C6
7773665145302A14 669
8275665349302A11 2A8
7C74695847302612 26A
7C77665149342A10 663
7C756C6941302A12 2A8
8C7766524C492810 28A
8C776C693C302612 26A
787569523C302A11 2AB
887469553C302B11 2BA
8C78695547302A14 473
827469513C302618 263
8C77695C45342B12 2BA
8378695432302711 27B
8B7766553C302912 29A
787769524C4B2611 26A
8178665234332A15 2AB
8C8269584B302A11 8C7
8875695236302A13 2AB
8C755C5247302B16 8C9
8C7769623C302A13 8CB
847769663C302A15 A41
827466574B302A11 676
8177695245342B13 2BA
807366524C472A11 4C8
AC7667524B342811 28A
A8736A554B302611 269
8C76635547382911 8CB
827469553C362711 276
AC776C6945302A12 AC4
8B76695547302A11 86B
7C786C6945302A12 6CB
8873695145302A12 457
797766524B302A11 669
95786C6647342A12 6C9
8673695547342B11 833
827766554C3C2A11 669
8C78675534322A11 2AB
777369553C302A11 2A7
AC7455524B302A11 AC6
8C71696445302A12 8C7
847769523C302B15 2BA
8C7069554B342312 8CA
89745C574B302611 267
A17C6A524B302618 A14
8175695238302B13 2B8
837866553C342A12 2AB
827369573C302B11 679
887569524B342A10 696
8C7C6C6639302A15 8C8
837766524C4B2A15 669
8C8C5C523C302B16 8C9
837769524C302A15 A30
8C7569523C382A13 2A8
7C73695147302B14 69A
8A7C695247362B10 696
897566524C472B10 2B8
7C776B6945342A12 6B9
8C786C6733302A15 6C7
7C776C6645342A12 6CB
8C8869553C302A14 8C8
887659554B302A11 2A9
A078695234312A15 2AB
7B73665247342A11 669
8A7466573C302911 676
8C8C6A5149302B16 6A7
83756C6632302A11 2A8
7C7C695247302B14 69A
8C735C524B362810 287
8C76635847342911 8CB
7C7669523C302A11 2A6
A6736A584B302911 A67
8C755C5143302B16 8CA
8C756C6A4B302812 6CA
7875695243342B10 69A
8372665847302A11 479
84785C5147302B16 479
8C716A5245342618 263
8C77695C4B302813 28A
88765C5247302911 885
7674695543302B12 2B7
8C7C69524B342A13 4B7
9C76695247302B11 2BA
8C896A5147302618 263
847669554B302712 69A
817A695547302612 263
8C74665847302911 8C5
8C78665133302A14 2AB
A97566524B302A11 A97
8277665534332A11 669
A77C6A554B342611 A74
777469584B302611 69A
7C7469584B302612 4B7
8C86695547302B14 2BA
7C77695543302612 26A
817C695245382A13 485
837469574B302611 679
867769523C342B15 2BA
78766A5547342B11 6A9
84786C6945302A13 457
A87469524B302A13 A87
8C7569633C302612 634
8C8369553B302A11 8C6
837669553C342A11 863
7B7469523C302611 267
AC86695247302B14 AC5
7C74665247302A11 669
837658553C302A11 2A9
8C7166524B302A15 8C8
8178695445302B13 69A
A8736C6A4B302611 A87
A77869554B302A12 A76
887766553C302A12 669
81746C6945302A12 6C9
817769523B302615 26A
85786C6947322B11 A52
817866524C342A15 2AB
857766524B302A11 669
7875695243302A14 696
81776C694B302813 28A
827469573C302B11 679
8B755C5247362A11 2A8
897B665147302A14 8B9
8C7469663C302A12 2A7
8C73545249362711 469
807869523C342A15 696
7C73695247362B11 2B8
7A74665247302811 28B
7C78665247342B11 663
8C78696345302B12 636
8C78665349302711 27B
8C7669523C302B13 696
8C87695231302A13 696
A77469524B302811 A76
AC7456524B302A11 AC5
7C78695145302712 27B
8678695241302A14 863
8C7C69523C302A11 8C4
937C69524B362811 287
8778665143342A10 2AB
7574665247382B11 487
7C79665247342A10 479
7C775C554B342611 26A
827C665447302918 475
8C72695547302618 47B
8C7B695547302A14 473
AC7369554B302811 28A
867C69553C342A10 863
8C786C6345342A12 6C6
8C716A5245302816 28B
82746C663C302711 6CB
A17B6A5247302618 263
827069553C342A11 2A7
9A7869524B302615 263
7C7469553C382B11 2B7
8972665147302A14 2AB
9C786C6945362A12 2AB
7C7369673C302A15 2A6
8C7766584B302915 29A
7C7C665447302918 47B
9B7C665247302A14 47B
8375695847302A12 689
8C7C665847302A11 8C4
817769524B342A15 696
8C7C665547342910 8C3
867C695843302A12 689
8C75545247362811 8CB
8C726A5147302B14 8C9
8178695245342A13 696
7871695547302A14 2AB
89785C5243362A15 2AB
987C66544B302A11 669
8C726C694B302811 8C6
7877665549342A11 663
85765B523C302A11 2A9
8C79665547302A11 8C3
7573695247302A11 2A8
8978665543342A10 2AB
8C7C6A543C302B16 6A9
8C7769523C302A11 8C5
7C766A524B382711 279
8C75695B3C302711 696
8C78665549302711 27B
93786C694B322A11 2A7
7C7B6C6945302A14 6C9
8876595245302A14 2A9
8C756C6947302812 8C4
8C7769584B302611 8C4
8C7C69523C302615 263
8C7766554B402A11 404
8C706C6945342312 8CB
77746B6945302A12 6B9
998C6A5547302B11 8C4
8C78695143302A12 2AB
867869524B342A10 863
7872665549342A11 2AB
8B75635147302A12 2A8
80766A524B342711 279
81775C524B342615 26A
8C766A5547302918 8C3
8C7C69643C302A12 647
867169524B342A10 863
8C8869554B342A11 8C8
85766C524B302A13 2A9
8C7867663B302A15 2AB
887B695547302A11 885
7473695547302A12 2A6
877866553C302A12 2AB
897C665847342A11 47B
877069524B382615 874
8C7C6C6634302B15 2BA
AC7567524B302A11 2A9
8876555447302B11 2BA
8C785C5549302A13 2AB
8C8C695237302A15 2A6
7C7B6A5247342618 263
8C756C6649302811 8CB
857C695B47302611 473
8C7769543C302B11 8C3
8477695843302612 26A
7C766C6945302A12 6C9
7573665249382A11 489
9C73696047382A12 2A6
847569584B302612 26A
8C776B553C302612 26A
8C7A6C5C45302B16 8C9
8C77695543342B12 2BA
837769553C302A12 A30
8872695447302B11 473
8C7766523C342B11 669
AC7067524B342315 ACA
7C78695543302A12 696
967B695248472A10 487
83776A5534302B11 6A9
8874665547302911 29A
A1736A524B302918 6A7
A8736A544B302911 A87
8C7466524B492A10 497
7C71695247342B10 69A
9378665247342A10 2AB
8A736C693C302615 8A7
7773696845302A12 451
887C695547302A12 659
887C695247362B10 885
7776695243302A14 767
8C7766583C302B14 2BA
8C756C693C302B11 8C4
8775665249382A10 489
A07566544C472A12 2A8
7C7869554B342612 26A
83765C524B302A11 2A9
8C7763553C302B12 2BA
9C78695543342A10 2AB
877C69524B302618 263
8C7C5C5249362A10 2AB
8378696745302A12 2AB
8C736A5247382B11 8C4
AC8C5C554B302A11 AC4
8473665547302A12 834
AC8169524B302618 AC5
8C7366514B302A14 8C5
827C665347302A11 669
8C73695541302A12 8C7
74716C6645302A12 2A7
8C8769514B302A13 8C7
8778665145302A12 2AB
8C7B695541302A12 8C4
A07369584C472612 A01
857463573C302A11 673
8675635847302A11 683
8175695243362B10 2B8
8B73695532302A11 8B8
8875525147302B16 479
8C78665241302A14 2AB
94736B6947322A11 2A6
8077665249342A11 663
9C7769513C302B13 2BA
837766524B302A14 669
85775C584B302611 26A
8B765C523C342A13 2A9
83746A5547302B11 6A9
8C7766514B302A15 8C9
8C8C665147302914 8CB
958369524B302611 267
8278696745302A13 2AB
A7755C524B362A11 2A8
9C7566524B382A11 48B
AC765B5247302A11 2A9
AC7367524B362911 46B
8C77695145302813 28A
8C726A5143302B16 6A9
80735C5547362911 467
80786C6945342712 27B
9C75695237302A11 2A8
8C7466513C302A15 8C8
847C6C693C302618 A41
817A595247302B16 479
83746C693C302B12 2B7
8C78676633302A15 2AB
7C736A5B47302611 6A9
8778695145342B10 69A
7C736C6945302A14 6C9
83776C663C302A12 A30
8C7569524C472810 4CB
8C7069524B342A11 8C7
8C7659554B302711 279
837466554C4B2A11 2A7
8C7469513C302318 8CB
8A7C695547342B10 696
9B8C64523C302618 263
8A765C5247302911 47B
8C775C523B302913 29A
8C786C6647302A11 2AB
8C8C69524B342711 8C3
8B7469553C302A12 8B8
8876525145302A14 457
8578695247302611 26A
8978665147342B10 663
7C74695145302812 287
7C7369523C302A11 2A6
9C7569524B362711 278
7673695847302A11 2A6
8C74695238302615 8CB
8778695143342B15 874
8B75665243302A14 8B8
7C776A544B302618 6A9
8C7769524B362811 8C4
7975665247302A14 663
8C765C524C472811 28A
897758554B302611 26A
A27C6A554B302918 6A7
7B7769553C302A11 696
8C736A5845302612 8CB
8C746A5243382B10 2B7
8C7463554B302A11 2A7
8C75695441302B12 2B8
8C776A524B342915 8C8
817769524C4B2615 26A
7675695247302811 28A
787769544B302611 69A
747069524C472811 47B
7C75695247342A11 696
9C776A524B302611 6A9
AC7455534B302811 287
83785C5247362A11 2A9
787469513C302B13 69A
7C78665149302A15 2AB
8C766C6345342A12 2A9
83765C5145302A14 2A9
7C7369524B302A11 696
81735C524B362A10 46B
89726A5547302618 263
A07C6A554C4B2816 65A
8C78675443302A12 2AB
8178665543342A12 2AB
A67469524B382711 48B
8C746C693C302A15 8C6
8473695237302A15 2A6
A9745C554B302A12 2A7
8B73665247302914 8B8
837C6C6945342A12 A30
8670695247342A11 473
8C736C673C302A15 2A6
857766513C302914 29A
867769523C302B11 2B8
8C7569663C302A12 663
9B786C6943342A12 2AB
8C7469524C302A11 8C8
7C776A553C302612 6A9
887A695147302B14 885
8C756C6337302A11 6C6
8C786A5245302B14 8C9
8A78595247362B11 473
827566533C302A11 2A8
7872665547302B14 669
96786C694B322A11 6C9
82765C553B302A11 2A9
8C776A554B342911 8C6
AC7C695547302B11 AC4
8C7469523C302B11 8C3
7C76575243302A14 2A9
8C7769663C342B15 2BA
9C736C694B322710 276
A3746A524B302918 A36
8C786C6941342712 27B
8578595247362B11 A52
8C786C6633302B15 8CA
7876695245302A14 457
7C726C693C302813 285
837469524B3A2811 287
83776C6941342A12 A30
937B69524C452A10 2A7
7772665145302A14 669
7B7869673C302A15 2AB
8678695C3C302A14 2AB
9C786C6947322A11 6CB
8C736A5147302816 285
7871696345302A12 2AB
8C776C663C302914 29A
8374695236302A11 2AB
8C7B695247302811 28A
857469513C302A13 A52
8C78695247342611 26A
9C7869554C342A10 4C3
7670635547342A11 2A9
9B84695243302A15 2A6
86746A573C302B11 67A
7C7766524C4B2A11 4CB
8C7B6A5549302618 6AB
7873695547302A14 2AB
A7746A524B302911 A78
857C665247302A14 479
83776A584B302611 6A9
8C786C6732302A15 6C7
8C83665547302A12 8C4
7772695543302B14 2BA
867469553C302A11 2A7
83766A554B382711 279
8C71665549302A12 8C7
7C765C584B302A11 2A9
8871595247302B16 885
8C75695247302811 28A
7772695145302B14 2BA
8C7C67514B342615 674
7C77695445302612 26A
8A73695445302612 8A7
7C756A5247382B10 487
88765B5245302A14 2A9
837466554B302A11 669
8C7766523C302B15 2BA
8C84695233302A15 8C7
8573665247342A10 A52
8C73675249362A10 469
81776C663C342A15 6CB
7C7B695247302A14 47B
77766B6945302A13 6B9
8177665549302A12 663
88765C5547302912 885
8577665143342A10 669
7C78665249342A11 2AB
8B766C523C302A13 2A9
8C74695245382710 8CA
807659524B342A11 2A9
88735C5247362910 885
847766513C302915 29A
8B73665547342A11 8B8
8C7C6A5145302816 6A9
8C7769664B302812 663
8B765C5247382911 8B8
817769553C302A12 2AB
78756A5247362B11 6A9
837866553C302A11 2AB
9C786C6647322A14 6C9
8775665849302A12 874
8C786A553C302B11 8C9
8B736C693C302A15 6C9
7C7669554B342711 69A
7B77696445302A12 643
8C8769523C302618 8CA
8C776C6633302915 29A
9578696047342A12 2AB
8C77695C45302813 28A
8C81695245302A13 8C6
8C7C6C5C45342B16 8CA
7772665543302A14 669
85765C5347302A11 2A9
988C665247302A11 8C9
8C7466514B302A15 8C8
AC7769523B302611 26A
8C7866523C342A15 8C9
837769584B342611 26A
80785C5247362A11 2AB
80765C5247342A11 2A9
8C83695236302A15 2A6
81765C5547302912 47B
847366584B302A15 669
817C695547342318 69A
9C78695245302A14 2AB
A174695547302618 47B
8C81695236302A15 2A6
8B7C665247342A11 663
857A595247302B16 479
8375665449302A11 2A8
887659524B302A14 2A9
A97567524B302811 A96
8276635547302A11 2A9
8C726A5149302618 6AB
8C786C663C342B15 6C9
8C7769553B302611 8C2
9C7569524C4B2811 69A
7C75665147302A14 669
8B77695445302612 26A
80736A554C472611 6A9
9378696647322A11 2AB
8C7860544C472A12 2AB
8C8C5C5247362911 8C4
857C69584B342A11 4B7
81785C5243362A15 2AB
81736A584B302712 276
7C78695547342A12 47B
8C78635236342A15 2AB
8C72695547302611 69A
877369524B382A11 2A6
8C8C5C5249302618 8CB
847C695247362B10 2B8
8C71665547302B14 8C9
8C736C6A45302B16 6A9
8378696645302A12 667
8C77665449302B12 2BA
787766523C302B14 669
7C7869513C342A13 2AB
8C7C665547342B10 8C3
A37469554B302A12 2A7
827469553C302711 69A
7C755C523C362A13 2A8
8C7863513C342A15 2AB
8A7566524C472B10 2B8
777269553C302A11 696
7C7C69573C302A12 679
89775A524B302615 26A
8776595243302A15 2A9
867469524C302B11 2B7
8C746C6941302A12 8C8
88775C524B3A2911 4AB
7C7769583C302B14 2BA
817869523C302B13 69A
9C7469524B302711 276
8C74635549302A11 2A7
8675635447302A11 2A8
837866523B342A15 2AB
A17A69524B302618 A14
AC7369514B302A15 2A6
77726C6945302B14 2BA
8C7C555247362B11 8C4
8C8C69523C342B13 696
8C87695236302A13 696
8C7C6A5547302611 8C4
8C7469554B302811 287
8C7469673C302B12 678
7C76635547302A11 2A9
AC7C69554B302A11 AC8
87756C693C302B11 2B8
757369524B302711 278
7C756A5447302B11 6A9
817B6A5247342618 263
8C7B695547302618 47B
AC8C66524B302918 AC5
85786C6347302A11 2AB
AC98695247302611 26A
89756A524B382710 48B
AA7267514B302813 AA9
8B74695238302A15 8B8
8C75665143302B12 2B8
A97C6A544B302611 6A7
8C78665249302B15 8CA
847769524C4B2813 28A
A57869524B342A10 4B7
A0776955483C2A12 A03
8C77695843302A12 8C4
8C88695547302612 8C8
80736A5547382611 6A9
827C695447302A11 696
8C7C5C523C302B16 8C9
8C7B6C6A45302618 6AB
A2786C6943362A10 2AB
8778665143342A15 2AB
837C665247302918 47B
8876595547302A11 2A9
8C77665149302B15 2BA
8573695247302611 A52
74736C6945302812 287
827A5C5147302B16 479
8374695B3C302611 267
7C7369523C382711 276
807C6952473A2611 4A7
A9755C524B302A13 2A8
847869513B302A13 2AB
7C72695547302B14 69A
7C78695547302A14 696
8C7468663C302A11 2A7
937C66554B342A11 2A7
8377695441302A12 A30
867269554B342A11 863
7C7469524C472611 473
8374695231302618 A30
817469553C302A13 696
7C7769524B342611 26A
88776C693C302611 26A
85765C5447302911 A52
8C7C695447302618 47B
817766524C4B2A15 669
7B735C5249362A11 469
837869523B302A15 2AB
8B7655523C302A11 2A9
8C776A5239302611 8C4
8C7C695543342712 69A
AC8C69524B302813 AC7
A5766A524B302813 6A9
7C765C524B342A15 2A9
9C7766584B302A11 669
8C7C665549342A10 8C3
8674695231302A15 863
AC8C6A524B302913 AC8
8877695445302612 26A
8C735C5247382611 8CB
AC775C524B302A15 AC3
8C78675145302A12 2AB
887C695243302A14 696
9C7766514B302A15 669
82765C5547302914 47B
8C73665547302912 8C4
7C78665543302A14 437
7C73665447302A11 669
85765C524B302A11 2A9
8C73665547302A11 8C8
7C74695145302712 69A
947669524B472A10 2A8
7C7069524B382A11 2A6
8C72665849302A11 8C4
827369544C302711 276
7C7469683C302A11 2A7
9C756A524B382711 48B
76755C5247302914 47B
757069524B362711 278
8277695145302B13 2BA
AA7369584B302611 AA8
A37669524B302A15 A36
897C665547342A12 663
7C786A5247302B16 6A9
9B78696647342A12 2AB
8C7569573C302B11 679
8C7469514B302318 8CA
85765C524B342A13 2A9
827866573C302B11 669
8C7B6A5547302612 8C4
7870665249342A15 2AB
8377665539302B11 2BA
8C7C6A5443302B16 6A9
8C78675245362A10 2AB
847569584B302A12 689
8678695C3C342A15 2AB
8972665847302A11 686
7C77695243302B14 2BA
8C75545249362711 27B
8675696332302A11 2A8
8B76695241302A14 413
7B78695247342A10 2AB
8C7563543C302A11 2A8
82746A573C302611 67A
8C78675539342A11 2AB
988369524B302615 26A
777269554B302611 26A
8C8769553B302A11 8C8
8C78665547442B11 8CA
8C78675449302A12 2AB
8C765C524C4B2911 8CA
9C7C6A514B302918 6A7
847769553C302A12 A41
8C746C6349302A11 2A7
8174665547302A12 669
85765C5143302A14 2A9
867869553C302A14 2AB
8378665549322A11 2AB
7C7469663C302A11 2A7
837569524B382711 69A
777266553C302B11 2BA
7573695447302811 28A
8C765C554B342911 8CA
987C695547342A11 696
84736C6945302A12 457
8678695243302A14 2AB
887A695547342B11 885
8C716C6945302712 273
8475585247302B16 2B8
AC775A524B302911 29A
8377696645342A12 A30
9C766A554B302911 6A7
887466554C4B2A11 2A7
7C73695145302712 276
AC7869524B342A10 2A7
AC846A524B302918 6A7
8C7469524B382710 8CA
AC7558524B302A11 AC7
8B77665235302914 29A
8C7C535147302816 479
8C7369573C302B11 8C2
83786C6945302B12 A30
8C7066523C342A15 8C8
A8776A524B302611 A87
837C5C5547362A11 2A9
8C746C6945302612 8C8
86786C6945342B10 863
78726A5447302B11 6A9
77736A544B302911 296
7B7866553C302A14 2AB
8C8A69514B302618 8CA
A8726A554B302611 A85
7C7C69554B302A11 696
8C77686645302A14 689
85765B5247302A11 47B
8278665547302B11 669
8C75676633302A11 678
A278696547362A10 2AB
807866553C322A11 2AB
A38C6A524B302918 A31
757069524C472811 47B
8C84695237302A13 8CB
AC73695847302611 ACB
8C75695247362810 696
7C7669524B302A11 4B7
8B765C52473A2911 473
817469524C302618 4CB
7C7C695347302611 26A
A1756A5247302816 A14
8876695247302A14 868
807769524B342611 26A
8B765C5449302A11 8B8
A87657524B302A11 2A9
8A74695243362B10 2B7
7574665247302B11 2B8
857769623C302A14 696
7C73695247382B11 487
837C6C6945302A14 6C9
8B756C693C302A11 2A8
7C7C695547342B12 69A
8C7A6C6945302B14 8C8
7C78665147342B10 669
9C766C5347302A12 2A9
8C745C514B302618 8CA
837769524B342611 26A
7B77665143302A15 669
9C786C693C342A15 2AB
8C7C6A5247302B14 8C9
76715C524B302A14 2A9
A67469554B302A11 A67
867869523C342A15 2AB
877669554B302A12 874
8C7069524B362811 8C4
86776A543C302B11 863
8C715A5247302816 479
8C77635849302A11 8CB
A87469554B302A11 A87
AC7C6A554B302914 AC7
7C78695541342A12 2AB
7B785C5249362A11 2AB
83765C554B302A14 2A9
9C786C6943362A12 2AB
89756C6632302A11 2A8
A7796A554B302811 A75
A27869513C302A13 2AB
8C76695547302A14 473
837766553B302911 29A
8C77635234302915 29A
AC7B6A5245302618 6AB
8778695243342A15 874
817069524C3C2615 263
8C78675234312A15 2AB
7B73696445302A12 2A6
8374665B3C302A11 2A7
8077665234332911 29A
9C746A524B302816 6A9
88766A524B342710 279
98736C6647322A11 6C9
8C7C66524B302A14 669
9C78695C47362A12 2AB
747069524B362711 278
9C7469524C4B2811 287
83746C6945302A12 2A7
8C746C5C45302B16 2B8
A3786A524B302615 6A9
8377665149302A15 A30
8C726C6945302B13 696
8C7C695243302618 8CA
8C776A523C302811 6A9
7573665247302A14 669
8674695B3C302711 6B9
8C7769524B342A11 8C3
7C76695245342710 27B
9C73695247362A11 467
8C7769524B3C2810 28A
8C77696345342612 26A
8478665233302A15 2AB
8C78695147342B10 8C5
8C7463554C4B2A11 2A7
8C8B695245342A10 8CB
827766553C342A10 669
837869553C342A11 696
8C7660524C472A14 2A9
847866513C302A15 2AB
A7736A584B302911 A76
A77569524B382A11 48B
857C5C5447302B16 479
A173695547302618 A14
8C746A5549382B11 2B7
8C7766554B442A11 448
8C7468514B302612 267
7774696345302A12 696
827766553C342B11 2BA
96885C553C302B11 2BA
7C7B665447302A11 669
77766C6945302A14 6CB
8B766C5C45302A13 2A9
8B76525049342A11 8B8
877C695145302A12 619
8A7C665147342918 47B
8C726C5C45302816 28B
8874695243362B10 2B7
8C735C524C452610 8CB
8C7C6A5547342B10 8C3
897766553C302A11 663
8C7863553C302A12 2AB
82765C5547342911 47B
77726C6645302A14 6CB
747069524C4B2811 287
A07766524B342A15 A03
777569523C302B14 2BA
8C7C6C6941342A12 8C5
84715C5547302B16 479
938C5C5249302811 287
8C77695C45302612 26A
8877665149342A10 663
85746C694B302711 A52
8C756A5143302B12 2B8
8C75665449302A11 2A8
86776B693C302A15 6B9
8A786C6945302B13 8A7
767569524B302811 287
7C77695145302B13 2BA
7C7766554B342A12 669
7C7B665247382A11 2AB
757069524B362811 287
A87466524C4B2A11 2A7
AC7769524B342811 28A
887769524C302A13 885
87765B5243302A15 2A9
AB73695247382A11 2A6
73706A5247382611 6A9
8378665532302A14 2AB
8C7967514B302615 263
8C74635237302A11 2A7
8C7C69553C342A11 8C2
8C766C5547302811 28A
8C7763554B342A12 8C9
8378695247342A11 2AB
8C82665447302A11 8C5
7574695847302A11 689
8C7669514B302A13 8C7
8C776B663C302A12 669
8778665534332A11 2AB
8C8C69523C302B15 8C4
8B7C695447302612 8B8
7C76695447302B11 69A
AC755C5247302A11 2A8
7B78695547302A14 2AB
8A795C5147302B16 89A
8B74695231302A15 8B8
AC8569524B302A14 AC8
8C736C694B302A11 2A7
8C7569523C302813 8CB
8C77695C45302B13 2BA
7B78665143302A15 2AB
88755C5147302B16 479
AC7769524B342A15 AC3
8C7C695847302A12 8C4
8876635147302A12 2A9
AC78665247342B11 AC5
8C786C6945302A14 6C9
827769553C342B13 2BA
857B695147302A14 696
A2776C6A4B302618 6A9
857369523C302A11 2A6
7C7369553C322711 276
867C69553C302A11 2AB
9C73696047362A12 467
857C695247362A10 2AB
8C7769524B4A2810 4A6
9C7369524B382611 267
967369524B342711 27A
8A7369544B302711 276
7C78695347302A11 47B
98736B6947322A11 696
AC835C5547302A11 2A9
8A78695247362B11 696
827869554B302A13 4B7
8A795C5247342B16 89A
8678695234302A11 2AB
8677695245302B14 2BA
81776C6639302A15 6CB
837869554B302A11 4B7
7873665549302A14 2AB
8C766A514B302813 285
8C73675449302A12 2A6
82786A5147302B14 6A9
7C75535247362B11 2B8
7C7C665247302918 47B
AC7566524C4B2811 ACA
978366523C302911 A70
857763523C302A11 A52
8C77635849342A11 8CB
80735B5247362911 467
8C7C695443302712 27A
8876595247302A14 2A9
8C756C663B302711 278
9C7369584B302611 69A
8C77635532302911 296
7C7869524B342A11 2A7
8C8C695537302A11 696
80776B6945342A12 6B9
987B69524C472610 26A
8C7A6C6945302813 8C6
827769583C342B11 2BA
93885C5249302B11 2B7
8177695843302615 26A
987469554B302611 26A
9C756C694B302811 6CA
8C776C663C302A12 8CB
7776695245302A14 767
7C736C694B302611 6CA
8C7763544B302A12 8C9
827769554C3C2611 26A
8C7763554B302A11 8C4
95766A524B342711 6A9
7873665447302B11 669
827769553C302B11 2BA
877869523C302A15 696
8877696245302A14 696
7876635547302A12 2A9
8C7C66584B302A12 8C5
AC7C695247362A11 2AB
87756C694B302813 6C9
897866554B302A14 4B7
86756C6943302812 6CB
877269554B302A13 874
9378665247302A11 2AB
8C7C695C3C342A15 8C8
8C74665243382910 297
857C69573C302611 679
8C7C6A5445302618 6A9
8675695443302812 69A
8B776C6639302A15 6C8
7C7766543C302B11 2BA
8C7566524B342A10 8C3
87786C693C302A11 2AB
8C7869513C302A14 8C7
8C7763553C302A11 8CB
8C765C553C342711 279
8C7566533C302811 8CA
8C755C5147302816 8CB
967C695547302A14 473
8C735A524B362711 46B
8A7C595147302B16 479
8C8C6A5247382B11 8C4
7C73695145302A14 696
8C746A5247302611 6AB
8C86695447302B11 473
8077665543342A12 669
8B76555243302A14 2A9
8C7B665547302A14 8C8
9C7869544C3C2A10 4C7
AC796A524B302816 AC1
8C75695247302B14 475
8C75675849302A12 687
8C746A5233302618 6A9
8C7C69553C342B13 8CA
7B78695247362A11 2AB
7B78695245342710 27B
96736B6947342A12 6B9
887C695445302A13 2AB
8A786C693C342B15 8A7
8C7B665547302A11 669
7C76595243302A14 2A9
9B7C665547302A11 47B
8C705C524C4B2615 263
8C756C664B302711 278
8C7469514B302615 8C8
847766553C302B12 2BA
7C7566543C302A11 2A8
AC7763524B342A15 AC9
AC7569514B302A13 2A8
8C766C633C342A15 2A9
837869523C342711 27B
7C75695143302B12 2B8
7B786C6947302A12 2AB
8C88695447302611 8C8
7C776C6945302612 26A
8B765C5847302911 8B8
8C7369514B302615 8CA
807766524C432A15 669
8778695245342B13 69A
827569543C302B13 2B8
9C7658524C472A10 2A9
8178696745342A13 2AB
8B7C665247302A14 2A9
8274665B3C302A11 2A7
93786C694B342A12 2A7
7775665249302A11 2A8
8C75665247302918 8CB
8B7769524C302813 28A
847769524B302615 26A
8673695247382B11 833
8C7369523C302B15 2BA
A87566524B302A11 A87
8C8869543C302A11 8CB
7C7369554B302611 26A
8873525147302B16 885
8C896A5247342618 263
A07869554C342A12 2AB
847C69524B382710 276
81756C663C302A12 2A8
8C7869553C302611 26A
837C695247302A14 47B
8C715C553C302B16 8CA
8975635447302A11 896
827658554B302A11 2A9
8C745C574B302A11 2A7
8C71665247342910 8C3
8C78665541302A14 2AB
807466554C4B2A11 2A7
7C78665549302A11 2AB
957C69524C4B2611 267
8A7866554C472B11 669
7C7869544B302711 276
8C885C5547302B16 479
8C776B5234302615 26A
817C5C5247362A10 2AB
8C776A524B382911 8C6
AC9569524B302811 287
8975665243382A10 483
8C79665145302A14 8C8
897766523B302A15 663
99786C6647342A12 2AB
7976635247302A11 2A9
887769554C4B2611 26A
90786C6943342A12 2AB
8C7466524B472A10 475
8C8C6A5145302618 6A9
857769533C302A11 A52
8275695347302B11 2BA
8B77665143342A10 669
AC7B695247342A11 AC5
78736A5547302612 6A9
8C786C6745342A12 6C7
A17A6C6947302618 473
8B7469553A302612 267
8C70695243342B15 8C8
9C736A524B302915 296
AB73695547302A12 AB8
8874695237302A11 2A7
A87C69554B302A12 A84
887469554C3C2611 267
9B83665247342A11 47B
7A78665147302B14 663
A0766A524B342915 A03
8C775C524B3A2911 4AB
8B756C6639302A11 2A8
8C75665247342B10 8C3
AC8C5C524B302A15 AC8
8B78695247342A11 696
8073695547442611 69A
8C73695245362810 287
8C746A5543302712 8C9
A1796A5247302618 263
AC995C524B302711 278
8B73665447302A11 669
8C776A553C302B13 6A9
8078665234332A15 2AB
8C776C664C302915 29A
7776695245302B13 2BA
7C7369584B302712 276
89756A5247342618 263
8C7B69523C302A13 2AB
8A73665247342918 47B
8675696832302A11 69B
867869553C342B10 69A
8C7763523A342911 29A
7C76555243302A14 2A9
8C7C67514B302612 263
8C70695245342B13 8C6
827C6C6945302A14 6CB
937C6A524B302918 6A7
AC8C6A5249302B16 6A7
8C75675249302A13 2A8
8377665849302A11 A30
8975665447302A11 2A8
8C83665547302918 47B
7977665143302A14 669
8B75665849302A12 686
8C726C6A3C302B15 6A9
8578695243302B14 437
89786A5547302B11 896
887C5C5447302B16 479
8078665149342A15 2AB
87765C5245342A10 2A9
88765C5547342B11 2BA
7A75695247302B14 69A
8C79665547342B11 8C3
8579525147302B16 895
8C785C5241362A10 2AB
A5776A524B302813 6A7
837B695547302A11 A30
8C736A524B362911 46B
81756C694B302812 6CA
80786652473A2B11 473
8C7C665547302811 28A
8A76695147302B14 86A
8C7469524C432810 4CB
8B765C5243342A15 2A9
80785C5549362A11 2AB
8C7366554B302711 669
8C73675445302A12 2A6
7C736A5247382B11 6A9
8C755C524C4B2A13 2A8
7C7B695243342A15 696
8C756C6733302A11 6C7
887069553C342A11 885
7C73695547342B11 69A
AC8769524B302618 874
8C8C6A5143302B16 6A9
8C8C66514B302918 8C5
857653524B342A11 2A9
81736A5847302612 6A9
8273695B3C302611 69A
88715C5547302B16 479
8C7067514B342315 8CA
8B756C6941302A12 2A8
73716C6945302812 287
8C73525049362B11 2B8
78766A5547302B12 6A9
817766523C302A15 669
9C73696547322A10 2A6
AC7469553C302B11 2B7
8C75695243382710 696
7C7669544B302712 278
AC71695247302618 47B
8C755C5249362810 497
8C735C554B362711 279
887369523C362711 276
8C7869553C362711 8C2
8675695447302811 28B
A7766A554B302811 A75
8C775C524B3A2611 4AB
8C7869523A302711 27B
8078665234312A15 2AB
AC75695447302811 AC3
877269544B302A11 874
7C7669554B302813 659
8C7763553B302911 296
8877695543302B12 2BA
8C77635532302B11 2BA
8C7469683C302611 267
8375525047362B11 2B8
7C7869544B302A11 2A6
8073695547322A11 2A6
AC83555247302A11 2A9
837469553C302B11 2BA
7A75665447302B11 2BA
8477695243302A15 696
887C695247362A11 2AB
84756C694B302812 4B7
897763553C302A12 636
8C77635539302B11 2BA
AC78665447302A11 2AB
87786C6645342A12 2AB
8C746A5147302816 285
AC7366524B382711 279
AC7869524B342710 27A
8577665243302A14 A52
8078696345342A12 2AB
7C78665233302A15 2AB
957C69524B342710 69A
937C69554B302612 267
8C75525049362B11 2B8
8677695541302A12 863
87735C5249362A10 469
7C7869553C302A14 696
8C7869603C342B15 601
8A786C6945302B12 8A7
AC756C693C302A11 2A8
8C7367553C302A11 2A6
AC73695247302611 69A
AC78665547302B11 ACA
8C7C5C524B3A2711 279
A67769524B342A11 A67
88765C5247342910 885
8378696136302A15 2AB
8C79665247302A14 8CB
7874696245302A13 2AB
7C735C5247382A11 2A6
8A785C5247342B11 473
84756C6647302812 A41
9178695243342A10 2AB
85786C6947342B10 A52
8C79525147302816 479
7C74695147302318 69A
857769533C302B11 2BA
A07769524C342615 26A
8C74635247302918 475
AC775C524B342911 29A
AA7369524B362711 AA8
7C74665143302A12 2A7
7C7657554B302A11 2A9
8177695445302B12 2BA
8B7C695847302612 263
8B79665147302A14 89B
AC8C56524B302A11 AC8
8C8C66514B302A15 8C7
8C7360544C472A12 2A6
837566543C302A11 2A8
8C88695143302A14 696
AC7769524B302615 ACA
8C756A6938302B11 2B8
7C756C6947302811 47B
857657524B302A14 2A9
8C756A514B302618 6A9
7C7B665245342A10 669
8378695547302A11 2AB
8C83665147302A14 8C5
827769553C342A11 696
887C695547342B12 885
85736C693C302711 276
80765C524B382A11 2A9
8C7569524C4B2811 28A
8C75665149302A14 8C7
8874665349302A11 2A7
8178696745342A12 2AB
8677695145342B10 2BA
8C746C673C302A15 676
8C7569674B302812 69A
A67753524B302A11 A69
8177695233302615 26A
AC77695235302611 26A
8B7369613C302A15 2A6
8C75665243382B10 2B7
8B75695147302A12 2A8
89755C5247362A11 896
8B78695243302A14 888
7C7C69573C302812 679
867763523C302A11 634
8C8C66524B342A15 8C8
7C7B5C5247362A11 2A9
85765C5247342910 A52
75746A5247362B11 2B8
827C695847302A11 47B
827C695547362B11 69A
837869554B342612 26A
8C746A5238302611 267
887469554C4B2611 267
8C736C6447302A12 2A6
8C7C69513C302A13 8C6
A87367554B302612 A85
8C7653524B342711 279
8C77665445302B12 2BA
978C63523C302911 8C5
89785C5247362B10 473
8C7766584B302914 29A
84786A5247362B10 A41
AC7C66524B302A11 AC5
837866513C302A14 2AB
8A71665547302918 47B
8376555247302B11 2BA
8C7C635247342A11 8CB
968C5C5241302B14 2BA
7C7766513C302B14 2BA
9A7C69523C302611 26A
9C7869554C322A10 2AB
88735C5245362A10 465
85765C5243342A10 2A9
8B7C665547302A11 663
7C73665147302918 47B
8C7766554B492A11 8C4
8877665533302911 29A
8875695247342A11 855
AC756A524B302618 6A9
988C665247342A10 8CB
8C765C544B302911 8CA
7C786C663C302A11 2AB
857769523C302A11 2A8
8273695537302A11 2A6
8C77696641302A14 415
99885C5547302B11 475
AC7C5C5549302A11 AC8
7C7769523C302611 26A
A2736B6947362A10 467
8477665149302A12 A41
8C71696745302A13 8C6
8C766B5C45302A12 6B8
75735C5247362B11 2B8
8C8C66524B342918 8CA
7C76695245342A10 696
8C7469513C302B13 8C6
7A756C6947302811 6C9
887766553C302A11 669
8174695543302A12 437
8A735C5247342B16 479
86786C6947302A11 2AB
877869543C302A11 2AB
7C766C6947302812 475
847769554C3C2A13 A41
8778665143302A15 2AB
7C76635547322A11 2A9
8C77695543302A12 696
8C7C695243302A14 8C7
8077665235342911 29A
8C77696145342813 28A
8C74665149302712 8CA
8578695247342B11 2BA
8C766C674C302A15 2A9
8C726A5145302B16 6A9
7C77696245302A13 696
887B6C6945302A12 6C9
8477665243302A15 669
837866513C342A15 2AB
78755C5247362B11 479
8375665849302A12 686
9C736C693C302A11 2A6
8C746A5245362B10 2B7
747369584B302611 69A
8873695445302612 457
82756C694B302711 278
827766553C302914 29A
8C8C66554B302A12 8C7
9378696647342A12 2AB
8C735C5547302611 8CB
A1796A524B302816 A12
847659524B302A13 2A9
AB73695247302A11 AB8
8B74695143302A15 8B8
8C786C633B302A15 6C6
8377665849342A11 A30
8C7C695847302B11 2BA
A5786C6947322A10 2AB
817C695247342618 263
8C7A695245302813 8C6
8278695147302B14 473
8B73695547302811 28A
8C7366524B342918 8CA
77765C524B302A14 2A9
8C8C6A5237302618 6AB
8C8769553C342A11 8C7
9C7C6A524B302611 6A9
787469524B302611 267
AC7769524B342611 26A
8B7C6C6945302A14 6C9
7673695245302A14 696
9378695247342A11 2AB
8C8A695247382B11 8CA
8877665249302A11 885
9C7C69524B362A11 696
8C735C524B362A11 2A9
867569533C302811 863
9C7556524B302A11 2A8
8C765C5247342911 8CB
8C7669524B302711 27A
7C75695447302B11 2BA
8778695245362B10 69A
77766A554B342911 6A7
8C776A524B342910 8C6
7C716C6945302A12 6CB
8C7763523C302A15 8C4
83765C5247302A14 A30
8C78695C3C302B12 8C7
88736C6947302612 885
867C695547382B11 863
7776696845302A13 69B
7C77665549342A10 663
827C69553C342A10 696
7C7369524C302711 276
8C78695547362B11 8CA
8B76535249342A11 8B8
8C75695847302A11 689
8C7867513C342A15 2AB
8C775C524C302A15 8CB
7C7866523C302A15 2AB
787066524C472B11 4C7
7C75665247302A11 669
8C786C693C302A11 8C6
8C8269553C302A13 8C7
AC735C524C4B2611 ACA
8C75665247412B10 2B8
777469513C302B13 2BA
8573695247342A11 A52
8C7869553C302A13 2AB
8C78695543342B12 431
8A756C6932302B11 2B8
8B7569523C342A13 696
8C7C66524C4B2A10 8C3
8C765C5249302A13 8C4
9A7C5C5247342318 479
7C7769513C302A13 2AB
827469553A302B11 2B7
887466514B302A12 2A7
777566523C302B14 669
8478695245362B10 A41
AC7566524B342A11 AC3
817367524B302615 67A
8C8C6A5143302618 6A9
78736C6941302A14 738
7A73695247302B14 696
8C75696332302B11 636
7C77665143302A15 669
867469533C302B11 2B8
8A735C5247362910 467
8C72665149342710 275
827369583C302A11 696
8C7466554B402A11 2A7
817369553C302B12 2B7
847766524C4B2A10 A41
8672695147302B14 473
827C665847342A11 663
837869523C342611 267
8678695543342B10 69A
7C746C693C302B12 2B7
9C78665447302A12 2AB
A37469524B302618 A31
8C78665C3C302A12 2AB
8C7B695147302618 47B
8C77696241302A14 8CB
8C75635849302A11 683
A77469524B302611 A78
7B7769663C302A15 663
887569514B302A14 855
8C74695C4C452A10 2A7
7C756C693C302A13 2A8
8C85695147302A14 8C5
8C7C635847342A11 8C5
827769554C342B11 2BA
7C78665445302A12 2AB
8177695245342813 28B
8C776C6A45302B16 6A9
8C7766523C302915 29A
A87369524B302711 276
82776C694B302813 28A
76735C5549302A11 2A6
8C726C6945302B14 8C8
A87466524B302A11 A87
86776B6945302A14 863
84786A5247302B16 6A9
8374665147302918 47B
7C736A5547302611 6A9
7C746A5247302618 263
A2996C5C4B302816 285
867769524C302B15 2BA
867869673C302A15 2AB
8C7669524B342711 8C3
827663573C302A11 2A9
7C796A5547302618 263
827766554B342A10 669
8C73665247302B11 8C4
8C7A5C5145302B16 8C9
8078695243342A15 696
7C77665445302A12 457
8C726C6A45302618 6A9
7C73695847302A12 2A6
8C83695247362A11 2AB
8278695547342A10 2AB
8275695347302A11 2A8
A7786A524B342611 A74
817A535247302B16 479
8C8369583C302A11 8C6
867469554C4B2811 287
8374695238302A11 2AB
76756A524C4B2811 6A9
8678695143342B15 69A
8871545247302B16 885
8C7C695847302A14 8C5
8A75695447302811 696
8C7369524B382611 8CA
82786A5547342B10 6A9
807C69554C472611 69A
8A7569523C302B13 2B8
A57769524B302A13 A58
A77469554B302A12 2A6
8374695238302B11 2B7
8573695247382611 A52
8278665349302A11 2AB
847669553C302A13 2AB
8C7C695245302B13 8C4
837769523B302A15 A30
8570695247382A11 2A6
847769584B302A12 A41
807369523C342A15 696
82776A553B302611 6A9
AC785C5247342A11 2AB
7C7869554B302A14 4B7
8C8769553C302A12 8C7
AC736A5247302914 47B
917C6C6A4B302513 6CA
8A75665147302B12 2B8
8475695C3C302A12 2A8
8A746C693C302B12 2B7
887369553C302B12 2BA
8C8C6A5243342B16 6A9
7C7869613C302A15 2AB
7C746C664B302A11 2A7
8C786C6647342A12 2AB
8277696145302A13 696
7C7869553C342B12 69A
7774665249302A11 663
AC7653524B302711 278
8C7469524B302611 8C8
AC7C69514B302813 AC7
7C756A5247362B10 2B8
83775C554B302612 26A
8C735C524C492610 8CB
8778695C45342A12 2AB
82775C584B302611 26A
8776695143302A15 619
8C7869523C302A15 8C4
9C75695243382A10 483
817566524C4B2A10 2A8
88776A523C302611 6A9
7B78635447302A11 2AB
8C7C665247382B14 8C0
8274665147302918 47B
8C786A5149342B10 8C5
8C7A695543302B12 8C7
7A78695243302B14 696
8C8769524C302618 8CB
A87769524B342A11 A87
7C786A5547342B12 6A9
867C695245382A10 2AB
8C7364514B302612 8CA
807866513C342A15 2AB
8073665547342A11 669
8C7463524C302A11 2A7
7C73695C45302A12 2A6
8378695447302A12 2AB
7978635247302A11 2AB
8C7866513C342A10 2AB
AC9B66523C302A11 2A9
8C7C5C5247342B11 8C3
7C756C694B302811 6CA
AC775C553C302A11 ACB
AC7869554B302A12 2A7
8C785C5549362B11 2B7
857769523A302813 28B
8277665845302A14 669
8C8C69523C342615 263
988C6C6943342A12 8CB
8B73585247362911 467
82746C693C302711 696
88795C5147302B16 885
83765C523C302A15 2A9
8C78695245342B10 8CA
7C78695245342A13 2AB
8C77695C4B342811 28A
877C69553C342A13 874
9C7669524B302711 278
AC7A695247302618 47B
8C77695541302B12 2BA
8B7763523C302A11 636
7776695243302B15 2BA
8C755C5249302A13 2A8
AC7C6A554B302913 AC6
9C746A524B302813 6A9
8C7369524B362811 8C4
8C75696738302B11 69A
8B7566583C302A11 669
AC766A524B302915 AC8
8573695847302611 835
82786C663C302A14 2AB
8378695447302611 26A
8276695147302B14 862
8C7663554B322A11 2A9
8C77665143342B15 2BA
9674695547412A10 47B
7C7869523C302A13 696
7C7C695547302B11 2BA
78735C524B362A11 46B
8173665247342A10 479
81756C693C302813 6CB
9B8169523C302A15 2A6
827469553A302611 267
837C695547302A12 A30
8C7C665447302A12 2AB
897C66573C302A11 677
8C7A665247342B10 8C3
89776C663C302A12 6CB
877366584B302A15 874
8374695547302811 28B
8C7C5C5147342816 285
9C766A524B342911 6A7
7C7566524C432A10 2A8
8C73695447302612 8C8
7C76695547302A11 2A6
8B7C665247382A10 487
8C766A5447302912 8C3
8C78676645342A12 2AB
8378665139302A15 2AB
7470695247362811 47B
8C7769553C302A11 8CB
8C766A5447302911 473
817769544B302612 26A
877869554B302A13 874
8873695237302A11 2A6
8378665147302B12 669
8C786A5247302611 8C4
8177695234332B15 2BA
8C78696345302A12 8C7
83786C6945342A12 2AB
9C7769524B302611 26A
8C7C695245382B13 696
8C7769524C4B2811 8C6
787569524B362711 278
8678695547342A12 2AB
8571545247302B16 479
7C75635147302A12 2A8
7978635247362A11 2AB
7C70665547342A11 669
957C69523C302611 267
8C86695547302B12 8C6
887769554C302611 4CB
8C72665147302B14 8C9
8C735C5245362B10 2B7
A97766524B342A10 663
8C7766553A302B14 2BA
8C766A5147302918 8C5
A9745C524B302A11 A97
77726A514B302315 6A7
9B85695247302A11 47B
7C7A695247302B11 69A
8C785C5245362910 297
8C7663554B382A11 2A9
817769663C302A15 663
8C776C6632302B15 2BA
837C69524B3A2711 69A
7873695245342B10 2B7
8C73675849302A12 2A6
887369523C362B11 2B7
857658524B302A13 2A9
9B7C695243302A15 2A6
8B765C553C302A13 2A9
8C736A5447302611 8CB
85786652473A2B11 A52
82765C543C302A11 2A9
777169524B302618 69A
77746C693C302615 26A
81776C6632302A15 6CB
74716C6945302B12 2B7
777566524B302A11 2A8
83746C663C302A12 2A7
9C736C694B362712 46B
8A7569523C362B13 2B8
7A7866524C472B11 4C7
807C695247362B14 69A
8176635547342A12 2A9
7978665145302A14 2AB
807766553C342911 29A
957C69524B382611 267
7C736A524C472611 6AB
8C726A694B302813 6A9
937C69524C4B2611 267
7C78695245302B14 69A
827766553B302911 29A
8C7B69553C302712 8C4
8C736C693C302B11 8C2
82786A5147302B16 6A9
8C7C695243362B15 8C8
A9775C554B302A11 A96
AC7352514B302A15 2A6
7C78695C3C302A12 2AB
A67869524B302A15 4B7
867569544B302811 4B7
8374665247302918 475
8C845C5147302B16 479
8B73665147302A14 2A9
7C78635247342A11 2AB
827C69553B342A11 696
A6716A524B302918 6A7
8C74695143302A12 8C8
8B78695231302A15 888
8C72665149302A14 8C8
8977665245302A14 663
787369523C302A11 2AB
8C78675149302A12 2AB
887A695247302B11 473
8C746A5549362B11 2B7
857C695247382A10 2A6
8C7C69524B382610 8C3
787569524B302611 267
8C756C633C302A12 6C6
8C786A5247302B11 8C9
8A7069524B362711 46B
767469554B302712 69A
8375695441302A12 2A8
8C7769524B302A11 8C5
89746A5147302618 263
8879535247302B16 898
80775C524B3A2911 4AB
AC7C66524B342A15 AC7
75746C693C302611 267
8C765C524B342A11 8C8
887766523C302A11 669
8C7766643C302A12 8CB
8C7C5C524C3C2B16 8C9
8C7469553C302612 267
88735A5247362911 467
8C7569544B302A11 2A6
777669513C302B15 2BA
8C76635445302A12 2A9
877569524B362810 69A
8C73675149302A15 2A6
998C5C5247302B11 8C4
887A5C5547302B16 479
8C7C5A5247362911 467
8671695247342318 69A
7A7766523C302B14 2BA
9B87695243302A15 2AB
8677696345302A12 634
7C7A695447302812 28A
82756A5147302618 263
847A595247302B16 479
8378595247362B11 A30
9C7769554B302A11 2A6
8978635247342A11 896
797763553C302A11 636
8C765C554B302712 279
7C7B665547302A14 656
89736A5147302618 6AB
8B74695231302A13 8B8
787669513C302B15 69A
7574695247302A11 2A8
8C7C665249302A15 8C7
7C7A665547302B11 669
A078695236342A15 2AB
747369524B302811 287
81776C693C342B15 2BA
887369553C302611 885
8C7A69524B302711 27A
8C766A5547302911 8C3
7C786C6347302A11 2AB
AC7B695547302A11 AC8
8577695231302813 28B
877269554B342A11 874
8C7C535247362B11 8C4
8478665231302A15 2AB
8C7266554B342710 656
AC7669554B302711 AC4
7B78665249342A10 2AB
7C72695147302B14 69A
96786C6945342A12 6CB
8B73695247302611 8B8
85786A5247302B14 6A9
AC7463524B302A11 2A7
8A79525147302B16 89A
857769523C302A13 A52
7C7569523C302A13 2AB
8B776C6945342812 28A
837C695147302A12 A30
AC7667524B302A11 2A9
9C766A554B342711 279
A6796A524B342811 A64
8C77665349302B11 2B8
7873665245342A10 2AB
9B85665247302A14 2A9
7B73695247302A11 2A6
8C715C5245302816 28B
7C78665443302A12 2AB
877669524B342A15 874
7C77695533302B11 2BA
7C765C524B342A10 2A9
A77C6A524B302611 A78
8C78675249342A13 2AB
8C7C6C6945302B13 8C7
867869554B302A12 4B7
8873555247362911 467
8C736A5247302618 8CB
7C77695543342612 26A
807766523C342A11 663
83785C553C362A11 2AB
8C776A5549302618 6AB
AC875C5243302918 ACB
877659524B342A11 2A9
8C78696045342712 27B
8374695238302611 267
7C7C695147302A14 696
867869544B302A11 886
89746A554B382711 896
77736A524B302911 4B7
877C695143342A15 874
8C77665549342B10 2BA
AC85545249302A11 AC3
8A78665147302B14 663
867C695147342B10 863
A87766554B302A11 A84
8C73665247342910 8CB
867C6C6945342A12 6CB
8C77696845342612 26A
857869523C342A11 2AB
9A715C524B302618 263
8677696245302A14 863
787469524C4B2611 267
8374695247302618 69A
8C766C6947302812 28B
8B776C6645302A12 669
8C8C6A5547302B14 65A
7C73695547302B14 659
887369524C4B2610 4CB
8877695531302B14 2BA
7C7769553C302B13 69A
7C7269584B302A13 689
8C77665233302915 663
83786A5547302B11 6A9
877569584B302A11 689
787066553C342A11 2AB
8B776A553C302612 8B8
A77369524B382A11 2A6
8274665549302A11 2A7
9B78665247342A10 2AB
7C77695C45302A13 696
787669524B302711 768
877869554B302A12 874
A97658524B302A11 A97
8C8C665447302911 8C5
8C766C5C45302712 27B
82746C694B302711 6CA
82756C693C302813 6CB
7C78695243302A15 696
7C7C695243302A14 696
8C75666332302A11 2A8
83765C554B302A12 2A9
8C756C6947302B11 2B8
85766C524B342A11 2A9
81735C524B362A15 46B
8477665249302A15 A41
78765C524B342A11 2A9
8C7766523C302811 28A
86746C694B302711 863
8C8C665549302A12 8C7
8C7469524B432810 437
8678695247302A14 2AB
7C74695547302A11 47B
AA7569524B302811 AA6
8C8C6A5247302B11 8C4
8B765C553C302A14 8B8
8277695541302A14 413
8C8C69643C302618 8C7
8C8269583C302A11 8C7
85765C5847302911 A52
A8766A554B302912 A85
8C7369524B3A2711 4AB
8C76585247302A14 2A9
847669554B302813 28A
8C8C665249302A11 8C7
82786C6945342B10 6CA
8C786A5243342B10 437
9883665547302911 29A
8C736A5549302B16 6A7
8873665249302A14 497
837766553C302914 29A
AC716A524B302618 6A9
807369524C472611 69A
8C765C5547302A14 2A9
837A69524B382711 8A3
8C716C6945302B14 8C8
93856A524B302811 287
A9775C524B302A15 A96
8C8C66553C302A12 8C3
9C78695143302A12 2AB
8C7C69524B302711 8C4
8C8866524B302711 8C8
8B755C5243362A10 2A8
8B72665147302A14 2A9
8C73665147302B14 8C9
8C7366554B302A14 8C2
7C7869553C322711 27B
937C69524B342710 69A
8C73695547302611 8C8
8C83695145302A14 8C8
8376695247342B11 2BA
84765C514B302A13 2A9
8277665533302B11 2BA
AC8C555247302911 8C3
8A74695247362B11 473
A27569514B302813 A21
967B695247412A10 415
8778665234302A15 2AB
8C7366524C472B11 8C4
7871695543302A14 437
82776C6945302A13 6C9
9C7769524B342813 28A
7C7469554B302A11 2A6
9C73695547302A12 2A6
9B8369553C302A11 2A6
8C78675149302A15 2AB
8C78666132302A15 2AB
8C7C5C5247362A11 2A9
8873525047362911 885
8076635247342A11 2A9
8C765C5547302911 8CB
837866553B342A11 2AB
8C7C6B6945302A14 8C7
AC7459524B302A11 2A7
A87769554B342611 26A
7973665547302A11 47B
8377695445302B12 2BA
807369554B362711 46B
96835C5247302B11 A60
847869523C362B15 A41
8C8C5C5547302816 475
8C786C673C302A15 6C7
7978665147302B14 669
8C7469573C302611 679
8C746A5249302B16 6A7
AC7366524B302911 297
998C5C5247302B16 479
8C7763584B302A11 636
99816A524B302816 6A9
8C756C6739302A11 6C7
9576695243342A10 2A7
8C7369584B302A15 2A6
8C7C695245362B14 8C0
757469513C302B13 2B8
8C756C6A32302B11 6CA
AC746A524B302915 AC7
AC8C6A524B302816 6A9
807766524C452A14 669
9C7269514B302813 285
8279665547302A14 892
8778695243302B15 69A
8C816A5547302618 263
9C736A514B302915 296
A67769524C4B2811 28A
8B7469513C302A15 2A6
8C77665449302812 28B
8379665247382A11 893
887C695547342A11 2AB
8C79665447302B11 8C5
887A695547302B12 885
817769523C342A15 696
7C775C523C302B16 2B8
8C7569524B462810 46A
8C786A5145342B10 8C9
8473665547302918 47B
8C79535247302816 479
8C8169524B342A15 8C8
AC8C6A554B302911 AC8
8075665247382A11 2AB
8C7769553A302611 26A
8877696245342A13 696
887C555147302B16 479
847869524C302B13 A41
7775665249342A10 663
7C77695245302A13 696
8C7C66524B342A10 669
7B736C6945302612 6CA
927469554B302611 267
8378695234302611 267
8C7869573C302B11 8C3
7C78695245362B10 69A
7A77695245342B10 2BA
7C78696631302A15 2AB
9C966C5C4B302812 28A
7C78665145342A10 2AB
8377665534302911 29A
8A74695233302618 8A7
7C7B6C6645302A12 669
8876555247342B11 2BA
7C766C524B302A13 2A9
7C7769553C302611 69A
807369524B382A11 2A6
8C77695245302813 28A
8C765C5447302A11 2A9
88765C5239302A13 2A9
8A715C5547302B16 479
8675696833302A11 69B
8C7C695C45342A13 8C6
8175535247302B16 479
8C78665145342710 27B
7673695247302B14 696
8C74696745302B12 678
8C74665547302B12 8C9
8C765C5245342B10 2B7
7C7466553C322A11 2A7
9B8C665243302A14 2A9
8C776A554B302618 6A9
857069524B382711 A52
8274665349302A11 2A7
847369554C4B2A12 2A6
7C776C694B342811 28A
8274665847302A11 669
8C7C665245382A10 2AB
A87769553C302A11 A8B
7C7669513C302A15 2AB
9C746A5247302618 263
8B75695447302A11 2A6
84736A5147302618 A41
7872665547342B11 669
8C7C69613C302A15 8C4
8C7869524B302A13 696
8678695443302B12 69A
837769514B342615 26A
8C746C663C302812 287
9C786C6647342A11 6C9
A8745C554B302A12 2A7
9673695247342A11 47B
8877665543302A12 669
7C77695445302B12 2BA
7C74695233302618 263
8B756C6647302812 6CA
8774695543302A12 696
7C76585245302A13 2A9
8B76555349302A11 8B8
8A73555247362911 467
83756A5147302B12 6A9
8574695238302A13 2AB
8C8B695547302612 8CB
8375695247302618 47B
8677695533302B14 2BA
947C69524C4B2611 69A
8B7655543C302A11 2A9
8C7C635547382A11 2A9
9C7766544B302A11 669
81736C6945302A12 6CB
867A695247342B10 863
AC765C5547302A11 2A9
8C7769543C302813 28A
AC7C69524B342A11 AC6
7C7766553C302B14 2BA
8A7369524B382610 4B7
867B695547302A11 8B6
8C74695C3C302B12 2B7
8178665247342B10 663
8C7466553C302B11 2BA
7C75665249382A10 489
A77554524B302A11 2A8
8C7563544B302A12 2A8
A8735C5549302A11 2A6
8C7469524B462810 46A
7773665249342A10 737
8C77635249302A11 636
8C7866633C302A15 2AB
7C7866553C302A12 2AB
8C78675349302A11 2AB
8B77665543302A12 669
8C76675843302A15 2A9
8C765B5247302A14 2A9
8C746C6947302812 69A
8A736C693C302711 276
8C7766524B482A15 8C4
867A695547342B11 863
8C76555347302A11 8C8
8A74695B3C302611 267
8C7563523C302A11 2A8
8675695B3C302711 6B9
877C69554B302A11 874
847769553C302813 28A
8877665149302A12 885
8C73695534302711 27A
8C725C5549302B16 8CA
AC7369524B302615 263
8378665239302A11 2AB
7C786C6945302A13 6C9
88716C6945302A12 6CB
AC815C5247302B16 479
7C7466554B302A11 2A7
8C78695247362B10 8C5
8C7C695843302615 8C1
8C8C665243342918 8CB
8C77695243302B15 431
837657524B302A14 2A9
89736A5447302612 6AB
8C8269554B342A11 8C6
8C7369554B382711 276
A2736C6945362A10 465
8A786C693C302B11 8A7
7C7B695847302611 69A
78756C663C302A11 2AB
7C7C6C6945342A10 6C9
877869524B302A11 874
8C7663553C302A11 2A9
A97455524B302A11 A96
A37169524B302618 A31
AC78695243342A10 2AB
7C75695147302A12 2A8
79755C524B362A11 2A8
8C8C6A5547302816 65A
7C755C5243362A10 2A8
7C73695247452610 47B
8B7769523A302611 26A
AC7563524B362A11 2A8
8C885C5147302B16 479
7C7766553C302914 29A
AC736A524B302811 AC7
7874665249302A11 2AB
8078695547322A11 2AB
78765C5549302A11 2AB
7C7C665447302A12 669
8C75635447302811 28B
8C7B6A5247302618 8C9
82745C5147302B16 479
8C77695445302813 28A
917C6A524B302918 6A7
8C78665249472B10 8C5
7C7C5C5447302B16 479
8278665447302A11 669
937C69524C4B2811 287
817766554B302A12 669
8C746A5237302615 6A9
8877665249302A14 885
88765B5547302A11 2A9
8B77695443302612 26A
AC7667524B342A11 2A9
8C75695447302B12 8C3
8C77665533302B14 2BA
7B78695447302A11 2AB
7C7654524B302A13 2A9
7776696445302A12 767
8C7367524C4B2A10 2A6
747269514B302813 285
7574665247302811 28B
837766554B302A12 669
8577665349302A11 A52
96895C5547302811 28A
9B88695547302611 659
827C665847302A14 479
8C766A5247302918 8CB
85736A524B382710 276
7C78695547322A11 2AB
87785C553C362A11 2AB
7C74695537302611 267
887C695547302A14 473
8C72665847302B11 686
8C716C6A45302B16 6A9
AC736A524B302618 AC9
7C7C695247382610 69A
A37C6A524B302918 6A7
8C736A524B382911 296
8C776B553C342611 26A
7C74665749302A11 676
8C8C66523C342A15 2A9
867869513C342A15 2AB
8A735B5247362911 467
78755C5249362A11 2AB
AC73695247302B11 AC5
807369524B342A15 696
8C746A5231302618 6A9
A0776955433C2A12 A01
80765C5247382911 47B
8C7469524C472810 475
8C7569544B302A12 2A8
8C7769524B462810 46A
8C88695547302B14 885
8374695237302611 26A
99885C524B342A11 2A9
9C785C5247362A10 2AB
8B75665443302A12 2A8
8A73695547302612 83A
8C7469533C302A11 2A8
7C7369524C3C2611 4C7
9C786C6943322A10 2AB
9C7769524C4B2611 26A
8C746C6945302B12 8C8
8C74665849302B12 686
7372665547302A11 669
8C7766524B492A10 8C4
837866543C302A15 2AB
8C766A554B302711 8C4
8178696345342A12 2AB
99845C5243302A15 2AB
877569524B342A10 874
968C5A524B302811 28A
8B75665243382A10 483
A9755C524B382A11 48B
757469524B302611 267
81786A5247342B10 479
A87369544B302611 A84
99876A524B302816 874
7875695247342B11 69A
7C7869553C322B11 69A
8073695547362A11 467
8C7C695245362B10 8C3
8076695247342A11 860
9C7569524B302711 278
8978665234312A15 2AB
8C7769523C302B15 8C8
8C776C6641342A10 8CB
7675695247342B11 69A
7C76545245302A13 2A9
8371665547302918 47B
8C7563584B302A12 683
7C7369613C302A15 2A6
957669524B342711 69A
A07669554C472A12 A03
87756B693C302A13 2A8
8C78675234332A15 2AB
9C776C6933302612 26A
8C8C695243302A15 437
847B665147302918 8B4
967B69524C452A10 4C7
857C695247342A11 47B
AC7569524B302A13 2A8
AC7469524B302A11 2A7
8C766A5847302912 8C3
8C70696645342712 273
AC7457524B302A11 4B7
9873696647342A12 663
8C8C6A5247302618 8CB
9C7469554B302612 267
8C7669524B302A11 4B7
7C7466573C302A11 2A9
8C7C635447302918 47B
7C7869663C302A12 2AB
88766A524B302711 279
767469524B302811 287
8C7C66524C472B14 8C0
7874695543302612 267
AC86695547302B11 AC8
9778695243342A10 2AB
8C8769553C302A13 8C7
887657524B342A11 2A9
8377665249342A11 A30
81786C693C342B15 6CA
8C8C69524B342615 263
787366523C342A11 2AB
82786C6945302B13 6CA
8C7469554B402811 287
8C76555249302711 27B
89755A5247362B11 2B8
777466514B302A15 669
8C7C665447302812 28B
8C8B665547302A12 8CB
99855C5247302A11 479
827866553C342A10 2AB
8C765C5547302A12 8C8
827469553C302B11 2B7
8C7569584B302611 8C4
82746C693C302618 6CB
AC7C6A524B302615 AC7
8C74665547302A11 8C8
7C74665847302A12 686
877652504B342A11 2A9
82756C6947302A11 2A8
8C76695541302A12 8C4
7C7866514B302A14 4B7
A67554524B302A11 A67
7775665149302A14 663
7C775C584B302611 26A
8C786C693C302615 26A
89755C524B362A10 2A8
8C78665249342A15 8C7
7873665247342A11 669
8C785C5145302A13 2AB
897466514B302A12 2A7
867869523C302A15 2AB
7B78665247302A14 669
8C7669524B302A14 8C8
8C775C5249302A11 8CB
968C69524B302813 28A
867069553C342A11 2AB
847569513C302A13 A41
AC7869553C302A14 2AB
AC7C66584B302A11 AC7
978C6A523C302911 8C5
8B74695236302A15 2A6
8873695247452610 69A
8078665547442A11 2AB
7874695547302A12 2AB
AC7566524B302918 AC4
8A73525147302B16 479
7871665249342A10 2AB
A0776C694C452A12 A03
8473695231302A15 2A6
857369573C302A11 679
8B74695847302611 8B8
85746C664B302A11 2A7
A6736A544B302911 A67
827866553C302A11 669
78776A514B302315 6A9
8C7867553B342A11 2AB
8B75695841302A12 689
857C5C5247302B16 479
AC7758523C302A11 ACB
897466524B382711 663
8C8469513C302A13 8C7
A87653524B302A11 A87
8C765C524B482A11 2A9
847869514C452A13 2AB
8C725C5149302B16 8CA
837866524C342A15 2AB
AC745C524B302918 AC6
8C7369554B302A11 2A6
737069524C4B2611 4CB
8C7C695145342B10 8C3
85786A5147342B10 6A9
AC7667524B342A13 2A9
8C7469574B302A11 679
8C7864554C472A12 2AB
7875665247342B10 669
78776A524B342315 6A9
9B8669523C342A11 2AB
867469533C302711 69A
837869554B302611 26A
A1756A524B302918 6A7
8877695235302B13 2BA
8577665249342A11 A52
AC77695234302611 26A
8C8C5C523C342B16 8C9
7774695543302612 26A
7C765C544B302A11 2A9
74736A5247382611 6AB
887466554B302A11 4B7
897866513C342A15 2AB
8C78695C45342B12 8CA
AC77695243342A10 ACB
8C7769624B302813 625
897866554C472B11 663
8574695236302B11 2B7
8978665145342A10 2AB
A87C6A524B302611 A85
827869544B302A11 4B7
89735C523C362A15 2A6
837658524B302A14 2A9
AC7763584B302A11 AC4
87785C5243362A15 2AB
937C69524B302611 267
7B78695147302A14 2AB
817569523C302A13 696
7C74695245382610 267
8571535247302B16 479
8C8C695145302B14 8C7
A8995C524B302A11 A98
8873695547422611 424
8C7569524B472810 8CA
8C8C665547342911 8C3
8C7A695245342B13 696
9C7866554C472A10 2AB
837766523B302914 29A
8C71695243342B15 8C8
7C78695547342A10 2AB
9B736A5547302611 6A9
8378695C3C342A15 2AB
7C776A514B342315 4B7
83786C663C342A15 2AB
8A7466524B382711 663
8C8C69523C302B13 8C7
817869553C342B13 69A
A6736A524B302911 A67
8C8C69524B302A14 8C8
8A78695243302B14 8A7
877369554B342A11 874
8C70665243342A15 8C8
7870665247342A11 669
8C776B583C302611 26A
7975665247342A11 663
887369554B472611 885
7C7766524C432A10 669
9876695247452A10 47B
887769553A302B14 2BA
8C72665847302911 8C4
8C74635236302A11 2A7
857769523C302B11 2BA
8C75686637302A11 68B
82776B6945302A14 6B9
8C746C6941302B12 2B7
8C86695547342B11 8C6
8A74665247302918 475
80736A524B362711 46B
A8766A524B302911 A87
8B7C635847302A12 636
8C78695234302611 267
8375665449302A12 2A8
7C77695541342A12 696
817769523A302B13 2BA
887C695445302A12 2AB
AC7C6A553C302618 6A9
8C7466554C4B2711 669
88735C554B362A11 46B
8C75635447302A11 2A8
8C7C69673C302A12 678
877069524B382A11 2A6
81796A5547302618 263
8077695243342A15 696
7B77665243342A15 669
A2756C6A4B302618 6A9
A87367524B302611 A84
8C7869513C302A15 696
797466554B302A12 2A7
AC74695247302B11 AC5
AC8C66554B302A11 AC8
837C6C693C302A15 2A6
8C7766524C432B15 2BA
8C8B695245302A13 8CB
7C75545247362B11 2B8
897766553C342A10 663
A07869514C362A15 2AB
8C7567523C302A13 2A8
7974665547302A11 663
8B736A5547302611 6A9
7C78665547342A11 663
8C776C6A45302618 6A9
8C76675243302A15 2A9
9C766A554B342710 279
7C765C553C342A11 2A9
8B766C5C45302A12 2A9
857766523C302B11 2B8
8C7169523C302B13 69A
8C7C696145342A13 612
8877695231302A13 885
7873695547302A12 2AB
76725C554B302A11 2A9
8C7C695441302A12 8C5
998C6A5247302B14 479
897766553C302B12 2BA
AC78695245342A13 2AB
8C8C665145302918 8CB
8C73695B47302611 8CA
877866524C432A15 2AB
7C78665143302A12 2AB
8578695243362B10 437
7C73665247302A11 669
AC77695235302B11 2B8
8C746C663C302711 27B
75726C6947302811 6CB
8C8C665449302A11 8C5
8675696338302A11 2A8
747069524B382611 267
8C7469524B362710 8CA
8678695132302A14 2AB
7977665243342A10 431
8C7369553C322A11 2A6
8C7763583C302911 296
8C8C5C5245302B16 8C4
7C7869554B302A12 4B7
8C746A524B382610 267
88746A5547302611 6A9
77746A514B302315 6A7
8C75686639302A11 68B
847869523C302B15 2BA
77736A524B302918 6A7
8C7B665243302A15 669
787369554B302A11 696
8A71695547302B14 696
8C7369524B342711 8CA
8273695B47302A11 2A6
8C8369523C342A15 8C8
8C8C695543302B14 696
8877695245342A13 696
88795C5547302B16 898
7C7766523B302914 29A
8C705C524B362A11 46B
7873696645302A14 2AB
8C8C66523C302A15 8C8
968C545249302811 28A
8C78695143302B15 8CA
8B78695547302612 263
7C7366544B302A12 669
8C7869573C302611 679
A8736A524B362911 46B
75735C5247302B16 479
8A74695247362810 47B
8C7C6C6A45342618 263
8B75695447302A12 2A8
7872665449302A11 2AB
8C75675243362A10 2A8
8C8C6C6A3C302B15 6A9
8C755C524B362813 8CA
8C74665233302A15 8C8
8873695547302B12 885
85786952473A2B11 696
8C7C6A5147302B12 8C5
8576535247302A11 47B
8C746A5143302B16 6A9
8C7367524B302611 8CA
7C7C695845302A13 689
817C69524B302A13 2A8
8C78695245302A14 8C3
8678695547342A10 2AB
8178665243302A15 2AB
88736C6937302A11 2A6
8C78665247452B10 8CA
8C746A5247302618 8CB
8C7766524C3C2B15 2BA
7C78665449302A12 2AB
7C7369524B382611 69A
8C765C554B302912 297
817769544B302812 28A
9C7469524B382711 48B
8873695145302B12 2BA
867769583C302A11 863
8C8C6A554B302712 8C4
AC8C6A524B302914 AC7
8C78665749302B11 8CA
857C595147302B16 479
AC7C695847302A11 AC6
847B6A5547302618 263
987C66514B302A15 669
877654524B302A13 2A9
8C7863553C322A11 2AB
807C69554C472811 28B
8C72665547342911 8C3
8C73555249362711 27B
AC745C554B302912 297
8C716A5543302B16 6A9
8C776C6639302B15 2BA
8C7769634B302812 634
8C8C665547302914 8C2
8277696145342A13 696
8C7C66523C302918 8CB
78756A5247302B11 6A9
8B76635447302A12 8B8
8C776C663B302915 29A
7C7C695547302618 263
8C735C5549362B11 2B7
8877696045342A12 696
87786C6945302B12 874
877566584B302A12 874
8C8B69583C302A11 8CB
8A7469554B382611 267
7872695145302B14 69A
81755C5247362B10 2B8
8274695537302B11 2BA
8C7567514B302A12 2A8
8176695233302A15 861
87765C524B382A11 2A9
837569524B362711 46B
A7736A544B302911 A78
8C81695247342318 69A
8C7C69524B302615 263
8C8269513C302618 8CB
8378695C3C302A12 2AB
8C8C665247302B11 8C4
83766C524B302A15 2A9
8C7569524B362710 69A
8874665549322A11 2A7
8A7369584B302612 4B7
8C7C6C6647302A14 475
757369524C472811 69A
78776A524B302615 778
8C796A5547302612 263
8C8769524B342A15 8C8
88765C524B302A11 885
7C7B695247342318 69A
8C75695C3C302812 8CA
8C796A5247382B11 8C4
817C695247382B10 69A
83786A5147302B12 6A9
8C74635547302A12 8CB
7C7A695843302612 437
8C736C694B302711 276
9689545247302811 28A
8874695247302B11 473
8C8C695C3C302618 8C7
7B78665547302A11 669
9C7769524B302A11 696
817C695843302A12 437
8C746C664B302812 287
8673695247302A14 836
8C8369553C342A11 8C8
8275665347302811 28B
8B75695247302A14 8B8
8C7A665247302B11 8C4
AC786C6945302A12 2AB
7876695243342710 27B
8C78695547342B10 8CA
8078535247362B11 479
AC7663554B302A12 2A9
8C78635549362A11 2AB
9B8C69553C302611 8C4
8C7866523C302A14 669
8C755C524B362A11 2A7
7C73665547302811 28B
9683545247302811 28A
8A74695847302611 47B
86776B6945342A12 863
837766524B342A11 669
8C76635547322911 8CB
837C695547302611 47B
86785C52473A2B11 863
8078635547362A11 2AB
747369524B302611 267
8C8869554B302A13 8C8
887769523A302B13 2BA
7B78665549302A12 2AB
7473665247302811 28B
8C7C665247342A10 47B
8A706C6945342712 273
A07869514C342A15 2AB
8C7A695247302B14 8C6
8C76695245302A13 2AB
7C7466514B302A12 2A7
7C78695241302A14 2AB
8872695547302A11 2AB
79755C5247302B16 479
887B695543302A14 437
8C716B6945302A12 8C8
8177696345342A12 696
8C7167524B342615 263
8C78665547302A14 8C3
8175665243382A10 483
7A7769524B302811 77A
847569613C302A13 2A8
9B82665547302A11 2A9
817C695547302B12 69A
7C7B695245342A10 2AB
8C7663524B302A15 2A9
8C745C553C362B11 2B7
8C7763583C302B11 2BA
8C7C6C6945302A13 8C6
8178665249302A15 2AB
7573695247362A11 2A8
8C7C69524B302A14 4B7
8177695233302B15 2BA
8C7C695247342318 8CB
8C7A665447302B11 8C5
8C7A6C663C302B15 669
7C7566584B302A11 686
88765C5149302A14 497
A27769514B302813 A25
7C7769524C4B2813 28A
747169554B302612 267
7C7655534B302A11 2A9
8378695532302A11 A30
8C775C584B302A11 8C9
8675695847302A12 863
8C725C5147302816 479
7C7C695543342A10 696
837769584B342A11 A30
847869554C432A12 2AB
8B74695236302A13 696
9C766A524B302711 279
9C736C6945322A10 2A6
AC7466554B302912 297
8C8769523C342A13 874
AC85695247302B14 AC3
837766523A342911 29A
8A765C5447302911 47B
827369553B302A11 696
78706A5247362B11 6A9
88765C5547342A11 47B
8C7466523B302A15 8C8
7C78665247452A10 2AB
8C7766554B482A11 8C4
827469514B302618 263
867469523B302A15 863
9C7C6A554B302918 6A7
78736A5447302611 6A9
81785C5249362A10 2AB
837469554B302611 267
8178665549342A12 2AB
81765C524B302A13 2A9
7774665549302A12 663
8578665249302A14 2AB
8C8C635247342918 47B
8B78695247302A14 473
9C73695137302A15 2A6
8377695245302A14 A30
8C7569673C302B12 69A
8C7B5C5147302816 47B
8C8669523C302A15 8C8
A37C6A514B302918 A36
75715C5247302B16 479
988469523C302615 26A
8675695247382A10 487
AC7769514B302A13 AC5
7C7366544B302A15 669
968C5A5249302811 28A
74736C694B302811 287
87765C584B302A11 2A9
8C75695447302611 47B
8C826C693C302618 8C7
89746C663C302A12 2A7
A18C6A524B302918 6A7
7C78635547362A11 2AB
8876695247342A11 475
8C706A554B342711 8C9
7C7866524C302A11 2AB
7674695547302A11 2A6
7C73695536302711 276
8C745C534B302A11 2A7
8C716C5C45302B16 8C4
8C7569523C302A13 8C6
AC736A524B342911 AC5
87765C524B302A15 2A9
A8766A544B302911 A87
85786C6947302B11 696
8C78635549342A12 2AB
8478665239302A15 2AB
867869633C302A15 2AB
AC7866524B302A15 AC7
877369524B302615 69A
8B74695536302A11 696
8C736A554B302711 276
8C8C69554B302A11 8C7
9C7367514B302615 67A
817566524C472810 663
8C7869554B302612 8C4
82746C6945302A13 6CB
8873695435302A11 2A6
7873665149302A14 2AB
8C75665147302B14 8C9
A17769523C302618 A14
8C73695B3C302A11 2A6
8C73665247302911 8C4
8A78665547302B11 669
7C7769553C322B11 2BA
8977665445302A12 663
8C7469683C302B11 687
7C73695147302A12 2A6
7C7369553C302611 69A
AC7466524B302911 297
8C7C69553C302813 659
83755C5247362A11 2A9
757466524C4B2A11 2A7
8C7269554B302A11 2A6
88765B5247342A11 2A9
87765C5245302A13 2A9
827C535147302B16 479
787366553C342A11 2AB
8C71695245302A14 8C7
9C7369524B382711 276
887469523A302611 26A
8B746C6932302811 287
97786C6943342A12 2AB
7C76695145302B14 457
8C74696745302A13 8C6
9C765C554B302A11 2A9
8C75635247382A11 487
827659554B302A11 2A9
8C75696633302A11 2A8
8C8C665249342A10 8C3
8B75665247382A11 487
7C75695247382B11 69A
86786A5547302B11 6A9
7C77665249342A11 663
8C81555247302B16 479
7875665247342A11 669
84775C554B302612 26A
7C7A695247342318 69A
7A735C5247302B16 479
7C736C6945302A12 451
8077665549342A12 663
8A785C5247302B16 479
8475695237302A13 696
AC815C523C302918 ACB
8C765C5547342A11 8C8
8C76675C45302A12 674
7C7C6C693C302A12 6C9
827869513C302A13 2AB
8873665549302A11 497
AC756C664B302811 ACA
88735C5547302B16 479
837869553C302A14 A30
8B706C6945342712 273
8C8C66553C302A14 8C7
8C7663554C4B2A11 2A9
8C8C69523C302A13 2AB
867B695243342A10 8B6
9C756A524B302918 6A7
A07869523B342A15 2AB
7975665247302811 28B
8C78635547322B11 8CA
7673696845302A12 69B
8B74695247302611 26A
8478665249302A15 2AB
8877695543342B12 2BA
8C78675449302A13 2AB
947C69524C4B2811 69A
78746C663C302A15 2AB
787369554B302712 276
8C78675236342A15 2AB
8C7866553C342910 297
8978665243302A14 2AB
A87269554B302A11 A87
8C8C695547302611 8CB
8C7766524B3C2A11 8C9
8B7566523C302A11 2A8
887C695447302A11 473
95786C6647322A11 6C9
817758524B302615 26A
8C776C693C302813 28A
7C7869663C342A15 2AB
807866554C472B11 663
777266553C302911 29A
877C69524B342A11 874
807866524C432A15 2AB
837C665847302A12 A30
AC7C5C5249302A15 AC8
85735C524C472610 A52
9C7566524C4B2A11 2A8
8C7C555147302816 475
A0786C694C3C2A12 2AB
8378696634302A15 667
8C74665143302A15 8C8
7C7769584B342611 26A
787369514B302615 69A
8C7866524B302A15 4B7
8C7369554B302711 27A
7C7766523A302914 29A
8578695133302A14 2AB
8678695243342A10 437
AC7C6A524B302918 6A7
8C7A695247342611 26A
7C7766523A302911 29A
88776C6945342B12 2BA
7C7469553C322711 69A
8C7367514B302A12 2A6
7B73695447302A11 2A6
8C7863523B342A15 2AB
8876695543302A14 885
8C73665449302A11 8C8
837654523C302A15 2A9
86756B6938302A11 2A8
88765C5449302A11 497
7C70695247382B11 69A
89756C6647302812 6CB
AC7769544B302A11 AC8
8C77695441302B12 2BA
85765C5247302911 A52
7C7469554B302611 267
AC7466554B302A11 AC3
AC78665247342A10 2AB
827C69543C302A13 2AB
8C746A553C302B11 6A9
8C77635534302611 269
7C78665549322A11 2AB
8874695537302A12 2A7
8C7569524B342A11 8C6
9C7369513B302A15 2A6
8C7769524C432810 4CB
AC7C69524B302618 ACA
8C87695532302A11 8CB
8C7C6A573C302611 677
86776C6945302B12 2BA
958A69523C302611 267
9B78696547322A11 2AB
8C87695233302A15 8CB
8778695243362B15 69A
AC736C6945302A12 2A6
8877665549342A10 885
8C766C5247342811 28A
8376695247342A11 863
8674695245382B10 2B7
967B695247432A10 47B
7C7769523C342813 28A
887A5C5147302B16 885
9C7559524B302A11 2A8
8C7463524B382711 8CA
8C8C67553C302A12 676
8C756B6639302A11 2A8
8C7466524B302A11 8C8
867C695247382A11 2AB
8C765C524B402A11 404
7C7769523C302B11 2BA
7871695243342710 27B
86786C693C302A11 2AB
9B80665247342A11 2A9
AC7C6A5245342618 263
A07866544C472A12 2AB
89776C6634302A15 6C8
837769554B302A11 A30
887366553C322A11 669
88765C5247342A10 47B
887A695447302B11 885
8978665534302A11 2AB
8C756C6A4B302813 6CA
8C8C695245302A13 2AB
8C84695235302B13 2BA
8C7269554B342710 27A
887769553C302B13 2BA
8C735B5247302816 47B
827C5C5447302B16 479
877C695243302A15 431
AC7663524B342A15 2A9
8C735C524B3A2811 4AB
807866524C492A15 2AB
8C78695543302A14 2AB
877869613C302A15 2AB
8675695441302A12 2A8
8873695247362B11 838
8C7C595147302816 479
8277665543342A10 431
837766523C302811 28B
7C765C554B342A11 2A9
8C75675249382A10 489
8C76695245342B13 696
7B7869613C302A15 2AB
8B7766553C302914 29A
AC7456524B302811 28A
998C565247302811 8C4
867469524B382710 48B
8B74665143302A12 2A7
94736C6647322A11 6C9
8C7769554B3C2811 28A
887369544B302612 4B7
A67C69524B342A15 A67
837657524B342A11 2A9
84756C663C302A12 2A8
817C695247362B10 69A
7B78665543302A12 2AB
8B75665249302A14 8B8
8C7869523C302615 26A
8B7766523A302915 29A
8C78695236342A15 2AB
7C766C693C302A15 6CB
99875C554B302A11 2A9
7871665543302A14 2AB
8C7264514B302618 8CA
8C7367524B382A15 2A6
8C785C524B362910 297
9C78696647322A10 2AB
AC7667524B302813 AC5
8C77666133302A15 8CB
8B78695237302A15 888
8378665432302A11 2AB
747066524C4B2A11 2A7
8C7A695145302B14 8C8
7C7C665347302A11 669
88776C663C302A11 6CB
988C635247342911 29A
AC7769524B302A11 AC8
8C775C534B302A11 8C4
84736C693C302615 A41
A17C695447302618 473
AC7466524B302918 AC5
897758524B302615 26A
7C7763583C302A11 634
8078695547342A12 2AB
7C7369514B302A14 4B7
8C7567524C4B2A13 2A8
8471695245302A13 814
8B765C5245342A13 2A9
8673695534302B11 2BA
807466554B322A11 2A7
8C7A665547302B12 8C4
7C776A523C302611 6A9
7C785C5245362A13 2AB
8C786C633C302A15 6C6
787169663C302A15 2AB
AC786C693C302A15 2AB
84776C6639302A15 A41
8C746C6649302711 8CB
967C695247302A11 473
8578695233302A11 2AB
887769523C302611 26A
8C756A5149302618 6AB
88765C524C4B2A11 2A9
9C78695245302A13 2AB
88746C6936302A11 2A7
8A7C695247342618 263
8C7566514B302A14 8C7
8C8C6A5145302B16 6A9
8A756C693C302813 8A7
8876695143302A14 885
8C7863573C302B11 8CA
7C785C5243362A10 2AB
8C785C523C302A13 2AB
807863554C472A11 2AB
8B7569583C302A11 689
8C72665549342B10 2B7
887C5C5147342B16 479
757366524C4B2A11 2A8
7C7C695147302618 263
85725C5147302B16 479
8C7367554B382A11 2A6
877369524B342A10 874
A9735C524B362A11 46B
837469524B3A2611 267
AC785C5549302711 27B
8C75665441302A12 2A8
8C7966524C472B11 8C4
8C7866554B302A14 4B7
8C77635845302A12 8C4
8C785C524C472610 26A
7C7766523C302918 667
7C73695841302A12 2A6
A3775C524B302A15 A36
8C77635238302911 636
8C79545247302816 479
9378696047342A12 2AB
74726C6947302811 47B
7C79665447302A11 663
89716A5547302618 263
8C78665549342A11 8C3
8C76695247342B10 475
8C82665547302A14 2A9
8B76695143302A15 86B
AC7369554B302711 AC4
8C7669553C302B13 8C7
AC7C66524B382A11 2A7
8C786A5249302B16 8C7
7C786A5447302B12 6A9
8378695534302711 27A
7C7C6C6945342A13 6C9
8273695147302B14 696
957C66524B342A10 2A7
8B746C6945302A12 6C9
797566544B302A11 2A8
867469523C302A11 863
8B7469553C302A13 8B8
9C736C6947342A12 6CB
8C736C6947302B12 2B8
84736A5147302612 A41
8B765C553C342A11 8B8
8C73695245342B10 2B7
8C716A5547302816 65A
88725C5547302B16 479
8B776C693C302A13 8B8
8C8C6A553C302B16 6A9
8174695236302A15 696
8576595243302A14 2A9
8C7C6A5549342618 263
837769524B342A11 A30
A97C6A524B302811 6A7
827369544B302A11 696
8B735C523C362A15 2A6
A07869514C3B2A15 2AB
827369554B302611 69A
8C756A524C472810 47B
8C77695441302612 26A
7370695247382A11 2A6
7371695547302A12 2A6
7C75695447302A12 2A8
8873695436302A11 2A6
8C75635447302611 26A
8C7C695B3C302611 8C4
9C73695C47302A12 2A6
7C756C693C302812 6CB
8678695147302B14 473
8C785C5247362911 8C4
8C726C6945302813 8C6
8477695245302A13 A41
887069554B342712 273
8C7866523C302A15 8C4
8C8C67584B302611 8C5
8C7769663C342A15 8CB
89746A5547302618 263
8C7B695243302A14 8C8
9C786C6947342A12 6CB
7C75665447302B12 2B8
9C7366544B302A11 669
9B8C695247302611 8C4
8C776B6941302A12 8C8
7C7C66524C472A10 47B
8C7C69584B302A13 8C7
8A70695547342312 696
957866524B342A11 2A7
79765C5245302A14 2A9
8B76555249342A11 8B8
AC76545247302A11 2A9
8C7266554B302A14 8C7
887669554B302711 69A
8874665143302A12 669
85735C5247382A11 2A6
837569643C302A12 2A8
8B77696345302A12 8B8
83766C554B302A11 2A9
807C695247342811 28A
7C766A584B302711 279
8C7566544B302811 4B7
8C8A5C5147302B16 479
7C73695441302A12 2A6
84795C5147302B16 894
7573695847302A11 2A6
82746A5147302618 263
8C766A5547302B12 8C4
747369524B362711 69A
807663554C472A11 2A9
8B76575243302A14 2A9
8174695233302618 263
877669524B302A11 874
8C8C665532302A11 8C7
827769554C302611 26A
837A665147302918 47B
8A7C5C5447302B16 479
9C766A524B382711 279
8C706A5245342B16 6A9
8C7667584B302A11 2A9
8C776B5233302615 26A
8C7A695247342B11 69A
7C776A514B302912 297
7C7469524B3A2811 287
827869543C302B13 69A
837866523C302A15 2AB
7C7A695245342B13 2BA
7872695547302A14 2AB
8C755C5149302B16 8CA
A0786954473C2A12 2AB
7C765B5243302A14 2A9
AC8C555249302A11 8CB
8C7C69544B302A11 2A6
817C69524B382A15 2A6
9C7369524C302A11 2A6
7C7A695547342B11 696
8B7766523C302811 669
8C76695247342B11 69A
A77369584B302611 A7A
82765C554B302A14 2A9
8B77696845342A12 698
9178665247342A10 2AB
8C7869553C342710 27A
807869524B342A15 4B7
8C78665543302A12 8C7
8875695147302B14 855
8C7C695547302811 28A
877069524B362A11 696
A18C69524B302618 A14
AC7267514B302513 ACA
977366524B342A11 2A9
8C78695441302712 27B
8B7769553C302611 8B8
7C7869523C302A14 2AB
8B7C6C693C302A15 6C9
7673695247342B11 2BA
827C69584B342A11 696
8C7367523C362A15 2A6
7C7769554B302612 26A
8578665143342A10 2AB
827C6C6945342A13 6CB
877869513C302A13 2AB
8972665447302A11 663
8A74695543302712 696
8C78666133302A15 2AB
8C7766554B302912 29A
837758524B302615 26A
8C7A69524B362811 8C4
9C78695C47322A14 2AB
8377665449302A12 A30
9C78695245342A13 2AB
8C765C584B302911 8CA
9C7669554C472810 28B
8B75665447302811 28A
8177696245342A13 696
89776A553C302B12 896
AC8C5C524B302618 AC9
8C7A69524C4B2811 8C6
837C665547342A12 A30
8C7466524C4B2810 287
8C8C695243302A14 8CB
AC755C524B302918 AC6
7C7566584B302A12 686
AC8C695247342A11 AC5
9B81695243302A15 2A6
85765C52473A2911 A52
AC7C6A554B342911 AC3
AC736A554B302612 AC9
8C716C5C45302816 8CB
877869523C342A11 2AB
9C78695547302A12 2AB
8C7C695247302B11 8C4
8C7C6A5547302618 8CB
867869523B302A11 2AB
8C746A5243302B16 6A9
8C78635239302A11 2AB
8678695133302A14 2AB
7C76695245342B10 457
8C7B695245302A14 8C8
857469523B302A13 A52
7772665549302A14 663
8678695441302A12 2AB
7C7A695247302611 69A
8C7269674B302813 69A
8C74695245362810 287
8B73555247362911 467
78736A5547302B12 6A9
827769583C302B14 2BA
817769523C342B13 2BA
8C7869523B302711 27B
8C76675443302A12 2A9
9B83665247302918 47B
9875695247302A14 696
8C766C5C47302A12 2A9
827869553C302B11 2BA
7C7569543C302B13 2B8
8C746A5249382B10 2B7
AA7769524B302611 AA8
8378665539342A11 2AB
96855C5243302B14 437
87765C554B342A11 2A9
8C7867663C342A15 2AB
8C735B5249362711 469
8A71695247342318 696
7874695543302B12 69A
A57C6A514B302813 A51
8C75665247302A14 8C8
8A74695236302B11 2B7
8C7769644C452A12 8CB
8C786C6645302A12 8C7
A87469524B302611 267
7B73695547302A12 2A6
7C7369683C302A12 2A6
8C756C6347302811 8CA
8C785C5243362B10 8C9
7C765C5547342911 47B
767369524B382711 276
8574695238302B11 2B7
8C776C633C302A11 8CB
81795C5247342B16 891
AC7458524B302A11 AC3
A7766A524B302911 A78
A1746C6947302618 473
AC775C523C302A13 ACB
8C7A5C524B302816 8C9
8274695B3C302611 267
9B8C665245302A14 2A9
7C755A5247362B11 2B8
8C89665847302A11 8C9
7574635247302A11 2A8
9A7C52514B302315 4B7
8C77665249302B14 2BA
8978635547342A12 896
8C74695235302813 28B
A17C6A5547302618 263
887766524B342A11 669
837766523B342911 29A
8C78695541302A14 8C7
8C73695847302612 8CB
7C70695547342312 69A
857B6C6947342A11 6C9
89776A5534302B11 896
8C8C695234302615 263
9C7869524C3C2A10 2AB
8C765C5247342B11 8C3
8C786C6945302712 27B
987C695247302A11 47B
78735C5247342A11 2AB
8C78695C3C302B11 8CA
988A69553C302611 8A7
8377665549342A12 A30
8473595247302B16 479
75746C6947302811 6CB
8674695238302A15 2AB
877C69553C302B12 2BA
8C785C5547302A11 2AB
8C75696637302A11 2A8
7C75665147302B12 2B8
8C7866603C342A15 601
AC9B695247302A11 2A6
877866553C302A11 669
827469553C302A13 696
887369524B362A11 696
7C7658524B302A13 2A9
A87453524B302A11 2A7
83786C6634302A15 2AB
8C75525047362811 8CB
8C7369553C382711 276
897C5C5247362A10 896
8C7269553C342710 659
7C75695841302A12 689
887C69524B342A11 696
8277695534302B13 2BA
8C7769524B432810 28A
A87569524B342A11 A84
86785C5347302A11 2AB
8C776C693C302B13 2B8
877369544B302A11 874
807866523C342A11 2AB
8C78665549472B11 8CA
A07769524C3B2615 26A
8C7C695245342A13 8C7
7B776C663C302A15 6C9
867869554B342A11 863
7B78665243342A10 2AB
8C72665547302914 8CB
7C76635547382A11 2A9
AC7269514B302513 ACA
AC8C665247342B11 AC5
847657524B302A13 2A9
AC745C524B302816 AC9
8C7766523A302911 8C4
887469554C302A12 2A7
82756C694B302813 6CA
8B73695441302A12 8B8
7B75695447302A11 2AB
7C765C5847302B11 2BA
8C766C633B302A15 2A9
877C695245362A13 696
AC716A5245302618 6A9
877C69553C302612 26A
8273695145302A14 696
8C746C6A45302618 6A9
8A74695245362B10 2B7
7C73695832302A11 2A6
8C7469513C302615 8CB
8C745C5245362B10 2B7
8778695541302A12 2AB
7C78695143342B15 69A
7978665243342A10 2AB
AC7C69584B302611 AC5
9C7369584B302711 276
AC7769524B302813 AC5
78765C5245302A14 2A9
897566524C4B2A10 2A8
8278665147302B14 663
8C74695541302A12 8CB
857369584B302A11 2A6
83786C6945302A14 2AB
837869673C302A12 2AB
AC76585247302A11 2A9
8A7C555147302B16 479
8C8B665247302A11 8CB
8274695537302A11 2A6
807369554B362811 287
7A75695247362811 69A
9C7A69524B302618 263
81746C693C302B12 2B7
8C78695236302711 27B
887369524B342A10 885
8C7469524C4B2811 8C3
8678695235302A11 2AB
7C765C5447302911 47B
8677695532302B14 2BA
7C72695547342B11 69A
7873695541302A12 2AB
AC7C6A5247302618 AC9
8C76695547302B11 69A
887469524C4B2610 267
7C7869544B302712 276
AC73695247302A14 AC5
8C73695441302612 8CB
8C7866553C342A11 8C3
8C86695543302A12 8C7
8C70665247382B11 8C4
8C76545249302711 27B
787369524B362711 46B
7C7769554B302A11 2A7
827466533C302A11 2A7
8C8669554B302A14 8C6
A87469554B302612 267
817569524C472810 47B
86785C524C472A11 2AB
8C7C6C6945342813 28A
8C7C5C5247302816 479
947867554B302611 67A
8C7269643C302618 8CB
827A695547302B14 696
7C78696634302A15 2AB
A87369554B302712 276
A07769524C3A2615 26A
75736A5247362B11 2B8
827766543C302B11 2BA
8C8769554B302A12 8C8
A77C6A524B302811 A73
8C7B665149302A14 8C8
80765C52473A2911 473
7C73695247342B10 69A
8C786C6941302A12 8C4
8675695243382B10 483
867269514B342710 275
8C7569613C302813 8CB
8C765C5145302914 8CB
8C7C6A514B342618 263
89785C5247362B11 896
7B7866553C342A11 2AB
987B69524C432A10 4C7
877658524B342A11 2A9
A38C69524B302618 A34
7C72665147302A14 479
79786C6645302A12 2AB
7873695247342A10 738
8C7766554B302A11 669
8C7C69523C382B13 696
817A695247342318 8A1
837669524B302711 69A
78765C5247342911 47B
86755C524C472A10 2A8
8C7C6A5547362B11 8C4
A6776A524B302918 6A7
8C7C665547302A12 47B
8A7B695247342318 696
887C6952473A2B11 473
8C7C5C5547362911 8C4
8C7766533C302811 28B
7673695547302A12 2A6
8C7A695247302811 28A
8C7569514B302A12 8C3
897863573C302A11 2AB
7C7869524B342611 267
89786A5547362B11 896
857766524B302A14 669
7C7569523C342A13 696
81736A524B382710 276
A37C6A554B302918 6A7
8574695238302611 267
867469683C302A12 2A7
988B665547302911 29A
8875665249302A14 497
877C6C6945342A12 874
7C7769524B302A11 2A7
877869524B342A15 874
9C786C5C47362A12 2AB
7C745C5247302B16 479
7C7469554B302A12 2A7
8C736A5547302918 296
847367524B302615 A41
8B7369523C302A11 2A6
877653524B302A11 2A9
7C75695243342A10 696
8C726A5547342B11 8C3
7C7766523C342915 29A
9C7C6A524B342918 6A7
99815C523C302A15 2A9
7975665247302B11 2B8
8C8269543C302A11 8C6
817869523C302B15 69A
8C7B665549302A12 8C7
8C7C695443302B12 8C5
877869553C342B13 874
8C74695245302813 8C6
8A745C5247302B16 479
8C746C6A45302816 6A9
8677695143302B15 2BA
9C786C6943302A12 2AB
8C78695247302A11 2AB
8C7369524B362A10 46B
8A7369584B302711 276
8C78695547342A11 8C3
988A69523C302615 8A7
8C76545249302A11 497
81755C5247362810 479
837866523C302A14 669
8278695145302A14 696
8C76695245302A14 8CB
998C5C5243302B14 8C7
8C75665243382710 27B
8C7C696345342A12 8C8
827C6C693C302A14 6C9
8674695143302B12 2B7
84765C5247302918 A41
8674695243382B10 2B7
8978665547342A11 663
877866553C342A10 2AB
8C76695247302B11 2B8
8778665249302A15 874
7C7766523B342911 29A
827C6A5547342618 263
8C755C5249362B13 2B8
8C78665547302914 29A
9C965C524C472B10 2BA
7C7B665247302A11 663
8C786C6339302A15 6C6
8C7B66523C302A15 8C4
7C73695245382A10 2A6
887C69533C302A11 2AB
8C7266584B302A11 8C7
86756C693C302711 27B
9C78695447302A11 2AB
937566524B342A11 2A7
7C7469554C4B2811 287
8A78695245362B10 696
8C775C5249342B11 2BA
A07869514C322A15 2AB
8B765C5547302912 8B8
8C7C69554B302A13 8C7
9C7869513C302A13 2AB
857769523B302611 A52
8C77665543302B12 2BA
AC835B5247302611 269
8778695245342A13 874
9C7369523B302A11 2A6
8C78696145302B13 612
857669514B302813 865
8377695245302B14 2BA
8C8C69553C302712 8C4
7C72695847302B11 2BA
8C7C66524B342910 29A
8A7C695247302B14 696
8C7C665749302A11 677
837B695247302A14 A30
827655534B302A11 2A9
897766514B342A10 663
8C8C695233302615 263
857869523C342A13 696
88765C524B302A13 885
817369524C3C2615 4C7
7C7766553B302911 29A
9C736A524B382911 296
968C53524B302811 28A
8A78695543342B10 8A7
8C78635249362A15 2AB
8A7C695847302612 263
A2746C6A4B302618 6A9
807C665547342A12 669
AC8C55524B302811 28A
8C7769633C342B15 630
AC7369524B382A11 2A6
8C756A5149302B16 6A7
8C78675549302A13 2AB
777169524B342615 263
7C78665247302B14 663
A67C6A514B302918 A63
7C7466554B322A11 2A7
8C7C6B693C302A15 8C7
8B765C5247342910 473
7C766C5C3C302A15 2A9
7C73695547362A11 467
867C695547342A11 473
8C716A524B342618 263
8C7A69553C302B13 8C7
777669523C302B15 2BA
8C7C6A5145342B16 6A9
7674695247302A11 2A8
8A78695245302B14 696
8C716A553C302B16 6A9
AC7C69524B302A13 AC6
81776C6945302A12 696
847A535247302B16 479
877C69553C302A11 696
8C75686632302A11 68B
797766553C302B11 2BA
9B7C665247302918 47B
7473695247302811 28A
7A7369524B382711 276
7775695241342A10 696
847369584B302612 26A
86756A5247382B10 487
8C7C555247362811 28B
837769554C4B2811 28A
7875665449302A11 2AB
8C7769524B452810 28A
8C776C6945302813 28A
7C78695443302712 27B
7C77695235302B13 2BA
8C75695243362710 8CB
7C716A5247342618 263
8C7266554B302918 8CA
7C7669544B302711 27A
7C7C695547302A14 659
877469583C302A11 696
8C776B5533302611 26A
817869643C302A12 2AB
887766553C302912 29A
7B78696645302A14 2AB
8C7566524C4B2710 279
A77559524B302A11 2A8
887369553C322A11 696
8C7366524B342A15 8C8
AC7C5C5245302918 ACB
AC8669524B302A14 AC7
8674695543302A12 431
8C8C5C553C302B16 8CA
7C78695236302B13 69A
8C765C524B302A15 8C4
8C7A69524B302813 28A
8B73695547302A11 8B8
8C7069524B342711 69A
8C86695247302B11 8C6
8278665543342A10 2AB
7C73695547302B11 2BA
8C73675149302A12 2A6
A07566514C472A12 2A8
8176575243302A15 2A9
8178695543342612 267
8579665147302A14 663
A97466554B302A12 A97
8278696145342A13 2AB
8C7A665143302918 8C7
8C7867524B302611 8C4
887C5C5247302B16 479
8B7653523C302A11 2A9
8C7369544B302611 8CA
AC745C524B302A15 AC7
8C75675149302A13 2A8
8C8C695245342B13 696
8C8C665247302918 8CB
8C765B5241302A14 2A9
8C77695443302812 28A
96885C5249302B14 2BA
7571695243302A14 2AB
7C756A5447302B12 2B8
8374695547302B11 2BA
8176635447302A12 2A9
857469524B3A2611 267
8874695547302A11 2A6
8C74635749302A11 673
817A695247302618 263
897866523C342A11 2AB
867869613C302A15 2AB
AC73695447302611 ACB
81786C663C302A15 2AB
8876555247302B14 2BA
7C7866544B302A12 669
8C7A6C6945302B13 696
AC83585249302611 26A
787469554B302712 276
9B8C665247302914 8CA
8C736A693C302615 6AB
7C7C695447302612 69A
81755C5243362A10 2A8
86756A5447302B12 2B8
7C736C6945302B12 2BA
8C7763523C302911 29A
787366553C302A14 2AB
8C7A665247382B11 8C4
7B7769613C302A15 696
7C7369643C302A12 2A6
7C765C5143302A15 2A9
8C7766524B482A10 8C4
827C695445302A13 2AB
89776A553C302B14 896
9988545247302B11 473
AC7367524B302A11 2A6
8C785C5249362710 27B
79786C663C302A15 2AB
8C8C6A5233302618 6A9
7C7769584B302615 26A
8B77696345342A12 8B8
8C756A6936302B11 2B8
837669554B302712 69A
81765C5243342A15 2A9
7C7766523C302911 29A
7C7C695245302A14 696
82765C5547302A11 47B
847766523C302918 A41
857369524B382610 A52
837766523C342A11 669
88776C6945302A12 2AB
8B7369573C302A11 679
8C8769543C302A11 8C7
8271665547302A14 2A9
8874665547302A11 669
817C69524C4B2618 4CB
8C7469524B3A2711 4AB
AB73695847302A11 2A6
987C69554B302712 276
8278665145342A10 2AB
8C8C665143302918 8CB
897766523C302B11 2BA
8C766C6347302911 8CB
7C7A695247362B11 69A
76746B6945302A12 2A7
7C765C5543302A12 2A9
AC8C6A524B342911 AC7
87765C524B342A15 2A9
7C786C663C302A15 2AB
8C7766584B302A11 8C9
9C786A554B302611 6A9
8975525047362B11 2B8
987C695247342A10 47B
807466524B382711 669
7B78696245302A14 2AB
8C7466523A302B11 2B7
82746C6937302811 287
8178695447302A12 2AB
AA78695547302B11 AA6
7C7469524B3A2611 267
89735C524B362A15 46B
8C705C5247362B11 8C4
8275695447302611 26A
8C7866633B302A15 2AB
987C66554B302A14 669
8A71695547302612 263
AC7667554B302A13 2A9
8C77695145302A13 8CB
89755C5243362A10 2A8
8C76575249302A11 497
8B766C6945302A12 8B8
8275665447302A11 669
8C84535247302B16 479
9775695243342A10 2AB
8C75675143302A12 2A8
85736C673C302A11 2A6
8C775C554C492611 26A
8578665149342A10 2AB
8C786C673C342A15 6C7
8678635547302A11 2AB
8C7659524B302A11 2A9
8B75665247342A10 8B8
897466554B302A11 2A7
7C7C6952473A2B11 69A
9C716A524B302816 6A9
8778695543302A12 696
8175665249382A10 489
8C7269544B302611 8C8
7B7369524A472611 4A8
897766554B302A12 663
8C736C6A45302618 8CB
8C7C5C5247362B14 8C0
957669524C4B2A10 2A7
7C776C6945302813 28A
7C765C5243342A15 2A9
8C746A513C302618 6A9
7C786652473A2B11 473
7C7A695547302612 263
847B6A5147302618 263
877C6C693C302618 6CB
7874695541302A12 2AB
9C7469524B382611 267
8C765C524B302911 297
AC83545247302911 AC5
8C7B695547302A12 8C4
8B7369523C342A15 8B8
9C7469524B302611 267
8378695234302711 27B
8C7766524B342911 29A
7C73695247302B11 69A
8178665549342A10 2AB
8C765C524B302711 279
8C74535249362B11 2B7
79736A524B342711 6A9
817C665247382A10 487
8C74665349302811 287
887C69543C302A13 885
AC7769554B302611 AC3
837755544B302611 26A
8C78665249342A10 8C3
89775C524B302611 26A
8B776C6645342A12 8B8
8578695447302611 69A
AC76695247342A11 AC5
89786C673C302A11 676
887769523C342A11 885
8B73695235302711 276
8B74695238302611 267
7C7C695247342A10 696
7C78665447302A11 663
7C7466524C4B2A10 669
8C7869514B302615 263
7C7769513C342B15 2BA
8278665549302A11 2AB
AC9369524B302811 287
8C7C695843302712 27A
817C69523C382A15 2A6
AC796A5245302618 6A9
8C76635547342A11 8CB
A5736C6947382A10 2A6
9C7369554B302A11 2A6
7C7466524C302A11 2A7
837866554B302A14 4B7
7C78695247302A14 696
837659554B302A11 2A9
9C7455524B302A11 2A7
75746C694B302811 4B7
AC7766524B302911 29A
82746C693C302A11 2A7
89775C524B302618 263
8C755C524C4B2610 4B7
8074695247382B11 473
8C785C544C472A11 2AB
9C7669554B342711 69A
8C8C5C5247362B11 8C4
8C7B6A5245342618 263
8578525047362B11 A52
7C7766554B342A10 669
857669584B302A11 865
7C78695C45342A13 2AB
8876695547302B12 885
8873695547322A11 2A6
8C78666332302A15 2AB
837566544B302A11 669
8B77695243342615 26A
8C7367524B362A10 46B
8C8C69554B302A14 8C6
9988555247302B11 475
8273665547342A11 669
8C736A5247362B11 8C4
8C7469553C302B13 8C6
8B7466513C302A12 2A7
8C7766524B302A15 8C9
8C7667554B302A12 2A9
887B665547342A11 885
8C78695145302A13 2AB
8C7869553C342A12 2AB
8C8C6C6641302A12 415
84755A5247302B16 2B8
8C79665247342A11 8C3
7C74695543302A12 696
85765C5147302914 A52
847C525147302B16 479
8C7566524B472A10 473
AC775C524B302913 29A
A9736A524B302615 263
8C7366553C302711 669
8C89665547302A12 8C9
8273695547342B11 2BA
8C706A523C342B16 6A9
84736A584B302712 276
8578665247302B14 669
8572665847302A11 47B
8078695245362B14 69A
8C77635539302611 269
807766524C4B2A15 669
8C74665549382B11 2B7
7774695145302B13 2BA
8C77696245302A13 8CB
7776695143302B14 2BA
8C746C693C302611 267
827869554B342A11 4B7
8C88555247302B16 479
8B7C665447302A12 669
8C786A5145302B16 8C9
7C746C6941302A12 2A7
83786C663C302A12 2AB
807866524C472A11 663
9C78695145302A13 2AB
7C7C69584B302A12 689
8C7369524B302611 8CA
83766A554B342711 279
81776B693C302A15 6B9
8C78695243302A15 2AB
8C7C665147342910 8C3
9C7569524B362811 287
7C746C694B302711 6CA
8C736A5247382611 8CB
79756A5247362B11 2B8
887B665543302A14 437
8C7466554B302711 8CA
8C74695237302811 28A
82735C554C472611 4CB
8B735C524C472610 8B8
8677695445302B12 2BA
777669553C302B14 2BA
87746C6945302A12 6CB
867469553C302B11 2B7
8C7763524C4B2A15 8C4
897C6A5547342618 263
8C77695845302A12 8C4
887766554B302A11 885
AC835C5247342A11 2A9
A87769524B302A13 A87
7875665143302A14 2AB
8A7469553C302611 267
9B8C66553C302A11 2A9
8C776A523C302615 8CB
997C5C5247302A11 479
A97766544B302A11 663
8C87665233302A15 669
7C74695247302B11 69A
8476525145302A13 2A9
7C7866553B302A11 2AB
8C746C6A3C302B11 6CA
7876695541302A14 2AB
88735C5549362A11 469
8C8A5C5547302B16 479
84765B5243302A15 2A9
837769543C302B11 2BA
AC9B69523C302611 AC5
7C7C6A5147342618 263
7C7C695247342618 263
8C7C6A544B302618 6A9
807657524B342A11 2A9
877369584B302A11 2A6
867469524B302A11 2A7
887366524B302A14 4B7
7C77665543302A12 669
85746C693C302711 A52
8C7066524B342A15 8C8
8C846A5147302618 263
8C775C524C3C2611 26A
857369524B362711 A52
8C736A553C302B16 6A9
8B7C665847302A12 669
8C745C5247362911 8C3
8377695145302A12 619
947C69524B302711 278
8C75635447302911 296
8C7866553C302911 29A
847869513C302B13 A41
A97C6A584B302611 6A7
958C66524B342A11 2A7
8C726A5543302B16 6A9
8C766A5547302912 65A
88745C5247302B16 885
8C8369513C302A15 2A6
8975665247382B10 487
8C78675149342A10 2AB
AC70695247342A11 AC5
847869514C432A15 2AB
817069524B382615 263
827569533C302B11 2B8
8C74635549322A11 2A7
7C755C5147302B16 479
8C74665231302A15 669
8C765C5247342A10 2A9
877869524B342A10 874
887469553C302A11 696
777669633C302A15 767
83745C574B302611 267
86746C6941302A12 2A7
7771665249342A10 663
9B86695245302A14 2AB
8C86695543302A14 437
8475695243362B10 2B8
8A735C5547302B16 479
987B695247462A10 47B
7C73695245342A10 696
8C746A5247362B11 8C3
7C7A695447302611 69A
8479525147302B16 894
89785C5347302A11 896
8C716A5247342318 8CB
8874665547302B11 2BA
8C77695245342A10 8CB
8C765C554B342711 279
8C7369523C302A15 2A6
A6746A524B302911 A67
8C7866613C302A15 2AB
817B6A5547302618 263
8376695247302B14 2BA
8C7769554B302A12 8C3
837569524B302711 A30
857866524B342A11 669
807469553C382611 267
85795C5247342B16 895
8B765C5549342A11 8B8
8C7A535247302816 479
7C765C5247382A11 2A9
8374695237302A11 2A7
8C7066523C342918 8CB
8C78635534302A11 2AB
9C7869554C472A11 2AB
8C8C695532302611 8C4
877469524B302A11 844
8776525143302A15 2A9
807466554C3C2A11 2A7
8C7366524B302A15 667
827569584B302A11 689
8C7860524C472A14 2AB
8C8A695247302611 8CA
8778665534302A11 2AB
7C7369584B302A11 696
8978665143342A15 2AB
9C755C514B302A13 2A8
8C8A525147302B16 479
867569524B302A11 2A8
877869523C302A13 2AB
7C73695145302B12 2B8
8C76555247342A11 2A9
8C7769513C302B15 2BA
857A525147302B16 479
7C74695243382B10 2B7
998C535247302811 8C5
8B77696845302A12 698
8C746C694B302A11 2A7
83756A5447302611 6A9
8C7867523C342A13 2AB
7874695145302B13 69A
8C736A524C472611 8CB
857869524B342A11 4B7
7C75665147302918 47B
8C746A5547302B12 6A9
8C8A695247302B11 8CA
8C7566524C472810 479
7C7766524B342A11 669
8279665147302A14 892
8475695847302A12 689
AC83585249302711 276
8C7B665547302912 8C4
9C786954473C2A10 2AB
8C736A5249342B16 6A7
99846A524B302816 6A9
76725C5547302911 47B
7A7369554B302612 69A
80755C5247362A11 2AB
9C78695247412A10 2AB
8C746A5236302B11 2B7
AC735C524B362911 297
8778665239342A15 2AB
AC8C5C524B302A13 AC6
7C7766523C342A11 669
9C7369524B362811 287
8C7C665243302A15 8C7
AC716A524B302816 6A9
7A78665247342B10 663
8C776A553C302611 8C4
85735C5247362910 467
8978635547302A11 896
8B766C5C3C302A15 2A9
867769524C3C2811 28A
877654524B302A15 2A9
8577665249302A11 A52
8579545247302B16 895
8C7869553C342A13 2AB
8C88665447302A11 8C8
8C75535249362711 27B
A97367524B302611 67A
968C545247302B11 2BA
9C756A5247302811 6AB
8B78695143302A15 888
8C7769654B302813 652
8C78675543342A10 2AB
847869523C302A13 2AB
83766C5C45302A12 2A9
8674695143302A15 619
8C766C673C342A15 2A9
8C7966553C342A11 8C3
8078635547342A12 2AB
7C74695247302611 69A
897B6A5147302618 263
8675695247342318 69A
8C7C665245302A14 8C7
AC7167524B302813 67A
8C73695145302A12 8C8
8C7C635547302918 636
8675695243342A10 2AB
84795C5547302B16 894
7C7655524B342A11 2A9
8B73695536302A11 696
AC7C5C5249302A13 AC6
8C776B5534302611 26A
807C695247362A11 696
8C736A554B302618 8C9
8178635447302A12 2AB
8B73695537302A11 8B8
8C71696745302A12 8C8
8678695145342B10 2B7
807769554C4B2611 26A
7B78695247302A11 2AB
8A74695238302611 267
8C7066524B342918 8CA
8C73695B3C302711 276
7C766C6945302712 278
8C74695233302615 263
807766554B342A12 663
7C7866524C452A10 4C7
807C6952473A2811 69A
8C765C553C342B11 2B7
8C77635239302A15 2A9
8C7869523C362A15 2AB
9C78695243302A15 2AB
7C7369524B382615 4B7
817C6C693C302A15 6CB
8C786B6945302A12 8C7
8C78695243342A10 2AB
AC7766524C4B2811 28A
9B8C5C523C302618 263
7C7466573C302911 676
8C7C5C5347302A11 8C4
8C766C6945302B12 69A
7C77665145342A10 669
8978665247302A11 663
8877665534302911 29A
86776C6941342A10 863
8C8C695532302711 8C4
8C766C6947302B12 2B8
8C786952473A2B11 8C3
8C755C5149302A13 2A8
8C745C5245362910 297
8C77696845302B12 2BA
8C766C6733302A15 2A9
8C78695531302A14 2AB
85736C694B382A11 2A6
8C8A5C5247342B16 479
8C86695537302A11 8CB
8C7966554B302A12 8C7
8378696632302A15 667
A07869514C332A15 2AB
8475665843302A12 686
99885C5243302A14 2AB
8C7766523C302A11 8C8
8C76695243342B15 8C8
847652514B302A13 2A9
867869513C342A10 2AB
7C7869553C342A11 2AB
83786C693C302B11 2BA
837469514B302618 A30
78766C6947302A12 2AB
7C7655524B302A14 2A9
9882665547302911 29A
8C735C5547302816 475
827469553C382711 69A
75746A5247302B11 2B8
7C7369553C322611 69A
96855C5247342B11 2BA
857769523B302813 28A
82786C6945302A14 6C9
7C78665249302A15 2AB
7C78695C3C342A15 2AB
887669524B342711 27A
7C77665245302A14 669
8C7469554C4B2711 8CA
A2796C6A4B302816 6A9
8C83665447302A11 8C5
8C72665549342710 656
8C7769524C452810 4CB
8C77665C45302A14 8CB
9C736A544B302911 296
83775C524B342615 26A
817C69553C302A12 2A7
9C7769524B302A13 2A8
7C765C5847302A11 47B
8177695443302812 28B
AC78665247302B14 AC5
A07769514C3C2615 26A
82765C5543302A14 2A9
A0746A524C4B2816 6A9
8C7766544B302912 29A
887769553C302B11 2BA
837469524C302A11 2A7
847C665247302918 47B
9A7169524B302615 263
8C73695547302B11 8C6
AC8B545247302911 AC5
887655524B342A11 2A9
8374665547302B11 669
8C7866524A472B10 8C5
A67169524B302A15 A67
8C776C6645302912 29A
857769523C302811 28A
82756C663B302A11 2A8
7C74665849302A12 497
8877695445302B12 2BA
8873595247302B16 885
8C766C633C302711 279
8578695136302A14 2AB
74736C6947302811 47B
8C78635235302A11 2AB
A67469524C4B2811 287
8C7867514B302615 263
7C76695243302A15 2A6
9478665247302A11 2AB
AC766A554B302911 AC8
827866554C3C2A11 2AB
8C746A5239302618 6A9
AC7C5C5247302B16 479
88776C6645302A14 6CB
84796A5547302618 263
7C766C5245302A13 2A9
9C786C6945302A12 2AB
8C7569644B302812 647
77736C6645302A12 737
A37C69514B302618 A34
887C695247302B14 475
807569524B382A11 2A7
8C7C6652473A2B11 8C4
78726C663C302A15 2AB
AC785C5249302B13 ACA
8C776A553C302B11 8C6
7C766A544B302711 279
AC7655524B302811 287
8C78696145302A13 8C2
AC746A5245302618 6A9
88715C5247342B16 479
8574695236302A13 2AB
887766553C342A10 885
8378665235302A11 2AB
7C77665234332911 29A
82735C554B362A11 46B
7C7869524C452A14 2AB
8973665147302A14 2AB
817763553C302A12 636
807569524C472A11 2A8
7C7B695247302611 69A
8C746A553C302B16 6A9
857069524B362711 A52
9C78695C47322A10 2AB
8473695236302A15 2A6
8C7766633B302A15 8C9
8278665534332A11 2AB
7876695247342A11 2AB
89786C6645302A14 2AB
7673695247302811 28A
7C7766524C4B2A10 663
837C695147302618 47B
7C736A5547302B11 6A9
877866553C322A11 2AB
817369523C342B15 2BA
8B755C523C362A13 2A8
947B69524C472610 69A
7C7369524B362710 46B
8C7568663C302A12 68B
777669524B302811 287
988C665243302914 29A
8C74695237302615 8CB
7C7655524B302A11 2A9
8C74665847302B11 2BA
7C78665543302A12 2AB
8C78675143302A12 2AB
A27C6A514B302918 6A7
7C78695C45342A12 2AB
9B8C69523C302615 263
8C8C5A5247302816 479
8978665247302A14 475
9C8C69524B302618 8CA
A57769514B302813 28A
8576525143302A14 2A9
827769553A302B14 2BA
827769553B302611 26A
AC7567524B342611 26A
817869633C302A15 2AB
8678695143302A15 2AB
7C7769523C302A13 696
8A75595247302B16 479
AC78695247302A14 AC3
8874695547302611 26A
8C77696341342A12 636
88735C5249362A10 469
8A75695247302618 263
82746C693C302B11 2B7
8C7469633C302A12 2AB
7870695547342A11 2AB
AC7766544B302911 29A
837769583C302B11 2BA
877C69584B342A11 874
8A7866524C472B10 663
81765C554B302A12 2A9
8C766C5C41302A12 2A9
867C695247342811 28A
967467524B302813 28A
887369523C302711 276
8C7C69523C302B13 8C6
7C7766514B342A15 669
9B7C665247342A11 47B
8A775C524B302618 877
937C69524B362711 278
8C7869663B302A15 2AB
887766553C342911 29A
837869523C302A11 2AB
7C7469524C452610 267
9578695247342A11 2AB
7C7766553C342911 29A
8C77665549302B12 2BA
8C7566524C472B11 8C3
7C7653524B342A11 2A9
87765C553C342A11 2A9
8C72695C4B302813 285
817766524B342A10 669
81786C6945302A13 6C9
8C76555249302811 28A
83775C554B342611 26A
8473695547302612 834
968C5C5247302B14 8C5
9C7769524C352610 26A
7C765C524B302A11 2A9
8C8269553B302A11 8C7
897C665247342A11 663
8C786C5C47342A11 2AB
8C8069524B342A15 8C8
8C78665549302A12 8C7
A87766554B342A11 A84
77746C6945302B12 2BA
81756C6647302812 6CB
7C7869514B302A15 4B7
8C775C523C302B16 8C4
8C8C6C6645302A12 8C7
7C78665547342B12 669
8B77665549302A11 8B8
8375665247342918 47B
8C786A5549342B10 8C7
8C7354524C472611 8CB
8C7469523C302A15 8CB
8C84695238302A13 2AB
8978635547362A11 2AB
9C7C6A554B302813 65A
8C756C6632302711 278
88736C693B302A11 2A6
877469553C302A13 2AB
8B736C6945302A12 451
837466524B382711 A30
757369524C4B2611 4CB
AC8B5C5249302A15 AC8
7C76695243342A10 437
7A7369524B302611 69A
80735C553C362A11 2A6
AA9869523C302611 AA7
8B75695241362A10 2A8
8075535247362B11 2B8
8C7869554B302711 27A
9C786C6943342A15 2AB
8C7669524B342A15 8C7
8C7869554B342312 237
7978665247342A11 663
8C785C5247342A11 2AB
787566524B302A11 2A8
8A72665147302918 47B
7873696245302A14 2AB
877369523C302A15 874
867569633C302A12 2A8
837866554C472B11 A30
8078665143342A15 2AB
8478695236302B13 A41
7773665549302A12 737
807469554C3C2611 267
82736C673C302A11 2A6
8C74695C3C302618 8C5
8C77665541302A14 8CB
8C765A5247302B11 2BA
8C745C523A302B16 8C9
AC796A524B302611 267
8178695C45342A13 2AB
7C7C695547382611 69A
AC796A524B302811 AC7
837769553C302611 26A
9C746A554B302912 297
897566514B302A12 2A8
777366584B302A11 737
817469523B302A15 2AB
817769553C302B13 2BA
897B6A5547302618 263
8C78695536302A14 2AB
7C7369584B302615 69A
8C7B695243302A15 8C7
8C756A5147302812 8CB
7C73665547342A11 669
8C7869523C302A13 8C7
8C7A695245342B10 8C6
8C7866623C302A14 2AB
8778695445302B13 69A
8C8C6A524B382711 8C4
7C74695247382611 69A
8B76595243302A14 2A9
8C7C69583C302A11 8C4
7C756C664B302A11 2A8
837869553B302A11 A30
8C78665549322711 27B
89786C6645342A10 2AB
99875C5243302A15 2A9
8876555247302B11 2BA
947C69524B362711 278
8177665239302A15 669
8C7A69523C342B13 696
8C7A695143302B14 8C8
8C775C5239302A15 8C8
8C746C6649302812 287
8C74695547302618 47B
8C795C5247362B11 8C4
847B6C6945302A12 451
AC78695247362B11 AC5
837769584B302615 26A
847A665147302918 47B
8C7669523C342B15 8C8
88765C5247302B11 2BA
787166553C302A14 2AB
7C765C523C342A15 2A9
8C765C524C4B2711 279
8C77695C45302B14 2BA
8A7367524B302615 678
AC786A524B302611 AC7
8C8C665243302A15 8C8
84736A5847302612 A41
8C7C69524B382A11 2A6
AC836A524B302918 6A7
A873695547302A12 A8B
7A78695145302B14 69A
7C78695243342A10 696
8C75635247302A11 630
8C7C5C5445302B16 8CA
8B74695537302A11 8B8
8177695243302A15 2A6
7C746A554B302712 6A9
8673695247342B10 833
8C7C69524B362813 696
8C7369524B342A11 8C6
7C71695547302A14 473
AA7769544B302611 AA8
8C7369524C4B2811 8C4
8C75676639302A11 678
7B7869513C302A14 2AB
8C7867513C302A13 2AB
817769524C432615 26A
8C7366523C342918 8CB
A87756524B302A11 A84
8C7769524C302A15 8CB
7C7569524B302A11 696
7B78695541302A12 2AB
7873695447302A11 2AB
8875535247302B16 479
8C736A5147302912 296
8C7B69523C302A11 8C7
988C635547302911 296
84756A5247382B10 487
8C7C665247342B11 8C3
9C776C694B302811 28A
9C796A524B302813 6A9
817C695243302A15 696
AC855C5249302A14 497
7C776A554B342611 269
8C7C69633C302618 634
85746C694B302A11 696
8778665443302A12 2AB
8C7866573C302A11 2AB
8C786A5243302B14 8C5
8C75695241382B10 481
8C7369544B302A12 2A6
857C535147302B16 479
84756C6947302812 473
8C75695441302812 8CB
7371665247302918 47B
867C695445302A12 457
8C766C5C47342A11 2A9
8C7469554B382711 8CA
877369523C302615 874
85765C5247382911 A52
8C735C554C492611 8CB
897766524C4B2A15 4CB
9881695243302615 26A
8C7A665147302914 8CB
887466533C302A11 2A7
8C7466553C382B11 2B7
9578665247342A10 2AB
8C7A665547302912 8C4
8578665247302A11 A52
8C746A514B302612 267
84765C5145302A13 2A9
8377665245302A14 669
8C73675249382A15 2A6
8C7469524B4A2810 4A6
7C75665247342918 47B
837C665247302A14 479
897766584B342A11 663
8C7569524B362A10 2A8
7873695547302611 69A
A67C69554B342A11 A67
8A756C6938302B11 2B8
8C77665C45302A12 8CB
837769514B302A15 A30
AC7C695547302A14 AC3
A675695247382A11 487
8C765C514B302914 8CA
83775C524B302618 A30
8078695543342712 27B
937469554B302611 267
8378665149302A15 2AB
7C7C69523C302618 263
8C7C695247342811 28A
8C8769524B302A11 8C8
787466554B302A12 2A7
81776C6945342812 28A
887769533C302B11 2BA
8C72695147302618 47B
AC7066524B342A11 AC7
7C7466524C452A10 2A7
7C786C6941342A12 2AB
8C736B6945302A12 8C8
817766553C302912 29A
8178665445302A12 2AB
887769523C342B13 885
7873665449302A11 2AB
AC7C695547342A11 AC3
8C776B693C302A12 8C8
7773696645302A14 737
86786C6945342B12 863
8C7869533C302A11 2A7
82765C544B302A11 2A9
81765C5247342910 47B
A77369524B302611 A78
